{
  "version": "1.0",
  "truncation": null,
  "padding": null,
  "added_tokens": [
    {
      "id": 0,
      "content": "[UNK]",
      "single_word": false,
      "lstrip": false,
      "rstrip": false,
      "normalized": false,
      "special": true
    },
    {
      "id": 1,
      "content": "[PAD]",
      "single_word": false,
      "lstrip": false,
      "rstrip": false,
      "normalized": false,
      "special": true
    },
    {
      "id": 2,
      "content": "[BOS]",
      "single_word": false,
      "lstrip": false,
      "rstrip": false,
      "normalized": false,
      "special": true
    },
    {
      "id": 3,
      "content": "[EOS]",
      "single_word": false,
      "lstrip": false,
      "rstrip": false,
      "normalized": false,
      "special": true
    },
    {
      "id": 4,
      "content": "[SEP]",
      "single_word": false,
      "lstrip": false,
      "rstrip": false,
      "normalized": false,
      "special": true
    },
    {
      "id": 5,
      "content": "[MASK]",
      "single_word": false,
      "lstrip": false,
      "rstrip": false,
      "normalized": false,
      "special": true
    },
    {
      "id": 6,
      "content": "[CLS]",
      "single_word": false,
      "lstrip": false,
      "rstrip": false,
      "normalized": false,
      "special": true
    }
  ],
  "normalizer": {
    "type": "NFKC"
  },
  "pre_tokenizer": {
    "type": "ByteLevel",
    "add_prefix_space": true,
    "trim_offsets": true,
    "use_regex": true
  },
  "post_processor": null,
  "decoder": {
    "type": "ByteLevel",
    "add_prefix_space": true,
    "trim_offsets": true,
    "use_regex": true
  },
  "model": {
    "type": "BPE",
    "dropout": null,
    "unk_token": "[UNK]",
    "continuing_subword_prefix": null,
    "end_of_word_suffix": null,
    "fuse_unk": false,
    "byte_fallback": false,
    "ignore_merges": false,
    "vocab": {
      "[UNK]": 0,
      "[PAD]": 1,
      "[BOS]": 2,
      "[EOS]": 3,
      "[SEP]": 4,
      "[MASK]": 5,
      "[CLS]": 6,
      "!": 7,
      "\"": 8,
      "#": 9,
      "$": 10,
      "%": 11,
      "&": 12,
      "'": 13,
      "(": 14,
      ")": 15,
      "*": 16,
      "+": 17,
      ",": 18,
      "-": 19,
      ".": 20,
      "/": 21,
      "0": 22,
      "1": 23,
      "2": 24,
      "3": 25,
      "4": 26,
      "5": 27,
      "6": 28,
      "7": 29,
      "8": 30,
      "9": 31,
      ":": 32,
      ";": 33,
      "<": 34,
      "=": 35,
      ">": 36,
      "?": 37,
      "@": 38,
      "A": 39,
      "B": 40,
      "C": 41,
      "D": 42,
      "E": 43,
      "F": 44,
      "G": 45,
      "H": 46,
      "I": 47,
      "J": 48,
      "K": 49,
      "L": 50,
      "M": 51,
      "N": 52,
      "O": 53,
      "P": 54,
      "Q": 55,
      "R": 56,
      "S": 57,
      "T": 58,
      "U": 59,
      "V": 60,
      "W": 61,
      "X": 62,
      "Y": 63,
      "Z": 64,
      "[": 65,
      "\\": 66,
      "]": 67,
      "^": 68,
      "_": 69,
      "`": 70,
      "a": 71,
      "b": 72,
      "c": 73,
      "d": 74,
      "e": 75,
      "f": 76,
      "g": 77,
      "h": 78,
      "i": 79,
      "j": 80,
      "k": 81,
      "l": 82,
      "m": 83,
      "n": 84,
      "o": 85,
      "p": 86,
      "q": 87,
      "r": 88,
      "s": 89,
      "t": 90,
      "u": 91,
      "v": 92,
      "w": 93,
      "x": 94,
      "y": 95,
      "z": 96,
      "{": 97,
      "|": 98,
      "}": 99,
      "~": 100,
      "¡": 101,
      "¢": 102,
      "£": 103,
      "¤": 104,
      "¥": 105,
      "¦": 106,
      "§": 107,
      "¨": 108,
      "©": 109,
      "ª": 110,
      "«": 111,
      "¬": 112,
      "®": 113,
      "¯": 114,
      "°": 115,
      "±": 116,
      "²": 117,
      "³": 118,
      "´": 119,
      "µ": 120,
      "¶": 121,
      "·": 122,
      "¸": 123,
      "¹": 124,
      "º": 125,
      "»": 126,
      "¼": 127,
      "½": 128,
      "¾": 129,
      "¿": 130,
      "À": 131,
      "Á": 132,
      "Â": 133,
      "Ã": 134,
      "Ä": 135,
      "Å": 136,
      "Æ": 137,
      "Ç": 138,
      "È": 139,
      "É": 140,
      "Ê": 141,
      "Ë": 142,
      "Ì": 143,
      "Í": 144,
      "Î": 145,
      "Ï": 146,
      "Ð": 147,
      "Ñ": 148,
      "Ò": 149,
      "Ó": 150,
      "Ô": 151,
      "Õ": 152,
      "Ö": 153,
      "×": 154,
      "Ø": 155,
      "Ù": 156,
      "Ú": 157,
      "Û": 158,
      "Ü": 159,
      "Ý": 160,
      "Þ": 161,
      "ß": 162,
      "à": 163,
      "á": 164,
      "â": 165,
      "ã": 166,
      "ä": 167,
      "å": 168,
      "æ": 169,
      "ç": 170,
      "è": 171,
      "é": 172,
      "ê": 173,
      "ë": 174,
      "ì": 175,
      "í": 176,
      "î": 177,
      "ï": 178,
      "ð": 179,
      "ñ": 180,
      "ò": 181,
      "ó": 182,
      "ô": 183,
      "õ": 184,
      "ö": 185,
      "÷": 186,
      "ø": 187,
      "ù": 188,
      "ú": 189,
      "û": 190,
      "ü": 191,
      "ý": 192,
      "þ": 193,
      "ÿ": 194,
      "Ā": 195,
      "ā": 196,
      "Ă": 197,
      "ă": 198,
      "Ą": 199,
      "ą": 200,
      "Ć": 201,
      "ć": 202,
      "Ĉ": 203,
      "ĉ": 204,
      "Ċ": 205,
      "ċ": 206,
      "Č": 207,
      "č": 208,
      "Ď": 209,
      "ď": 210,
      "Đ": 211,
      "đ": 212,
      "Ē": 213,
      "ē": 214,
      "Ĕ": 215,
      "ĕ": 216,
      "Ė": 217,
      "ė": 218,
      "Ę": 219,
      "ę": 220,
      "Ě": 221,
      "ě": 222,
      "Ĝ": 223,
      "ĝ": 224,
      "Ğ": 225,
      "ğ": 226,
      "Ġ": 227,
      "ġ": 228,
      "Ģ": 229,
      "ģ": 230,
      "Ĥ": 231,
      "ĥ": 232,
      "Ħ": 233,
      "ħ": 234,
      "Ĩ": 235,
      "ĩ": 236,
      "Ī": 237,
      "ī": 238,
      "Ĭ": 239,
      "ĭ": 240,
      "Į": 241,
      "į": 242,
      "İ": 243,
      "ı": 244,
      "Ĳ": 245,
      "ĳ": 246,
      "Ĵ": 247,
      "ĵ": 248,
      "Ķ": 249,
      "ķ": 250,
      "ĸ": 251,
      "Ĺ": 252,
      "ĺ": 253,
      "Ļ": 254,
      "ļ": 255,
      "Ľ": 256,
      "ľ": 257,
      "Ŀ": 258,
      "ŀ": 259,
      "Ł": 260,
      "ł": 261,
      "Ń": 262,
      "Ġt": 263,
      "Ġa": 264,
      "čĊ": 265,
      "in": 266,
      "er": 267,
      "ou": 268,
      "Ġth": 269,
      "Ġc": 270,
      "at": 271,
      "Ġw": 272,
      "re": 273,
      "Ġs": 274,
      "Ġo": 275,
      "Ġthe": 276,
      "nd": 277,
      "Ġy": 278,
      "Ġyou": 279,
      "ĠčĊ": 280,
      "Ġto": 281,
      "Ġi": 282,
      "Ġb": 283,
      "es": 284,
      "ing": 285,
      "Ġm": 286,
      "an": 287,
      "Ġf": 288,
      "Ġp": 289,
      "on": 290,
      "Ġh": 291,
      "or": 292,
      "le": 293,
      "Ġand": 294,
      "en": 295,
      "ke": 296,
      "Ġd": 297,
      "Ġl": 298,
      "Ġof": 299,
      "ĠI": 300,
      "th": 301,
      "el": 302,
      "al": 303,
      "--": 304,
      "Ġin": 305,
      "ar": 306,
      "'s": 307,
      "ĠN": 308,
      "st": 309,
      "ro": 310,
      "ero": 311,
      "ti": 312,
      "ĠNero": 313,
      "Ġis": 314,
      "ed": 315,
      "Ġli": 316,
      "ĠT": 317,
      "Ġg": 318,
      "Ġn": 319,
      "Ġe": 320,
      "Ġwh": 321,
      "Ġit": 322,
      "ic": 323,
      "ow": 324,
      "Ġco": 325,
      "me": 326,
      "ve": 327,
      "ac": 328,
      "Ġu": 329,
      "ay": 330,
      "ĠTh": 331,
      "et": 332,
      "Ġcan": 333,
      "ec": 334,
      "Ġyour": 335,
      "Ġthat": 336,
      "Ġlike": 337,
      "mp": 338,
      "Ġwi": 339,
      "is": 340,
      "ll": 341,
      "ĠU": 342,
      "ser": 343,
      "it": 344,
      "Ġpro": 345,
      "Ġma": 346,
      "Ġ--": 347,
      "ĠUser": 348,
      "Ġ---": 349,
      "ut": 350,
      "Ġre": 351,
      "se": 352,
      "ĠA": 353,
      "Ġha": 354,
      "Ġso": 355,
      "Ġor": 356,
      "ig": 357,
      "Ġhel": 358,
      "de": 359,
      "Ġbe": 360,
      "Ġhelp": 361,
      "ĠH": 362,
      "Ġfor": 363,
      "ere": 364,
      "ers": 365,
      "ĠW": 366,
      "ion": 367,
      "ent": 368,
      "**": 369,
      "ul": 370,
      "Ġon": 371,
      "Ġst": 372,
      "Ġwith": 373,
      "ra": 374,
      "ep": 375,
      "ly": 376,
      "tion": 377,
      "out": 378,
      "Ġas": 379,
      "as": 380,
      "Ġan": 381,
      "ri": 382,
      "Ġdo": 383,
      "Ġwor": 384,
      "Ġare": 385,
      "'re": 386,
      "Ġmo": 387,
      "ey": 388,
      "ĠIt": 389,
      "Ġne": 390,
      "ant": 391,
      "ter": 392,
      "ld": 393,
      "oo": 394,
      "Ġle": 395,
      "Ġwhat": 396,
      "ir": 397,
      "Ġhave": 398,
      "Ġmake": 399,
      "um": 400,
      "ble": 401,
      "ĠS": 402,
      "ation": 403,
      "ht": 404,
      "reat": 405,
      "ĠWh": 406,
      "ot": 407,
      "ag": 408,
      "Ġex": 409,
      "Ġab": 410,
      "un": 411,
      "Ġv": 412,
      "ist": 413,
      "pp": 414,
      "'m": 415,
      "ine": 416,
      "Ġwe": 417,
      "Ġsome": 418,
      "Ġme": 419,
      "qu": 420,
      "Ġ1": 421,
      "Ġcon": 422,
      "king": 423,
      "Ġti": 424,
      "ce": 425,
      "Ġus": 426,
      "end": 427,
      "mm": 428,
      "ach": 429,
      "Ġabout": 430,
      "ect": 431,
      "Ġhow": 432,
      "ad": 433,
      "Ġ\"": 434,
      "our": 435,
      "ch": 436,
      "ell": 437,
      "ight": 438,
      "ake": 439,
      "ĠĠ": 440,
      "ind": 441,
      "Ġpl": 442,
      "Ġif": 443,
      "ĠThe": 444,
      "mple": 445,
      "ful": 446,
      "les": 447,
      "rou": 448,
      "Ġ**": 449,
      "id": 450,
      "Ġ2": 451,
      "Ġch": 452,
      "ĠC": 453,
      "all": 454,
      "ure": 455,
      "ry": 456,
      "Ġcode": 457,
      "ĠHey": 458,
      "Ġ5": 459,
      "ĠY": 460,
      "ks": 461,
      "Ġuse": 462,
      "ess": 463,
      "ber": 464,
      "Ġal": 465,
      "ain": 466,
      "Ġsh": 467,
      "ther": 468,
      "``": 469,
      "riend": 470,
      "ĠYou": 471,
      "ur": 472,
      "Ġfe": 473,
      "thing": 474,
      "Ġat": 475,
      "ate": 476,
      "Ġgo": 477,
      "Ġprog": 478,
      "ust": 479,
      "Ġqu": 480,
      "**:": 481,
      "Ġ3": 482,
      "ĠP": 483,
      "Ġfriend": 484,
      "ings": 485,
      "Ġcomp": 486,
      "ore": 487,
      "ace": 488,
      "ver": 489,
      "ang": 490,
      "ab": 491,
      "art": 492,
      "for": 493,
      "Ġk": 494,
      "Ġall": 495,
      "Ġsp": 496,
      "Ġbo": 497,
      "ol": 498,
      "Ġj": 499,
      "Ġby": 500,
      "gh": 501,
      "arn": 502,
      "ĠThis": 503,
      "tions": 504,
      "'t": 505,
      "us": 506,
      "Ġneed": 507,
      "leep": 508,
      "if": 509,
      "Ġr": 510,
      "Ġway": 511,
      "Ġnum": 512,
      "ity": 513,
      "ĠB": 514,
      "Ġmore": 515,
      "ĠWhat": 516,
      "Ġprogra": 517,
      "form": 518,
      "ide": 519,
      "ject": 520,
      "est": 521,
      "Ġcomput": 522,
      "ame": 523,
      "Ġen": 524,
      "res": 525,
      "ĠD": 526,
      "uc": 527,
      "ug": 528,
      "Ġcreat": 529,
      "ĠIf": 530,
      "Ġlearn": 531,
      "ak": 532,
      "pl": 533,
      "Ġde": 534,
      "rac": 535,
      "Ġfi": 536,
      "ort": 537,
      "Ġget": 538,
      "age": 539,
      "ould": 540,
      "Ġthings": 541,
      "Ġwant": 542,
      "Ġbut": 543,
      "Ġwork": 544,
      "ink": 545,
      "ps": 546,
      "ari": 547,
      "Ġtime": 548,
      "Ġmy": 549,
      "Ġnot": 550,
      "ĠSo": 551,
      "av": 552,
      "ample": 553,
      "now": 554,
      "Ġsc": 555,
      "Ġbet": 556,
      "ood": 557,
      "ĠF": 558,
      "ich": 559,
      "Ġsomething": 560,
      "op": 561,
      "Ġinter": 562,
      "ite": 563,
      "Ġsleep": 564,
      "Ġother": 565,
      "Ġknow": 566,
      "ĠR": 567,
      "rom": 568,
      "Ġwhich": 569,
      "rough": 570,
      "able": 571,
      "ment": 572,
      "way": 573,
      "Ġthrough": 574,
      "nder": 575,
      "als": 576,
      "Ġwhen": 577,
      "il": 578,
      "ms": 579,
      "ĠE": 580,
      "Ġwill": 581,
      "Ġthis": 582,
      "Ġca": 583,
      "Ġhe": 584,
      "Ġinform": 585,
      "Ġgi": 586,
      "Ġexample": 587,
      "Ġques": 588,
      "Ġke": 589,
      "Ġman": 590,
      "Ġfun": 591,
      "Ġfrom": 592,
      "Ġnumber": 593,
      "ĠL": 594,
      "and": 595,
      "ct": 596,
      "os": 597,
      "Ġad": 598,
      "Ġhere": 599,
      "Ġup": 600,
      "Ġproble": 601,
      "ĠHow": 602,
      "get": 603,
      "sist": 604,
      "Ġout": 605,
      "Ġcl": 606,
      "Ġthey": 607,
      "ĠIn": 608,
      "tiv": 609,
      "Ġworld": 610,
      "Ġnew": 611,
      "ress": 612,
      "fer": 613,
      "Ġsm": 614,
      "Ġthem": 615,
      "Ġmach": 616,
      "Ġvari": 617,
      "mming": 618,
      "ines": 619,
      "Ġwho": 620,
      "ech": 621,
      "Ġrec": 622,
      "Ġcomputer": 623,
      "Ġapp": 624,
      "ath": 625,
      "Ġse": 626,
      "Ġev": 627,
      "Ġjust": 628,
      "Ġbetter": 629,
      "Ġsi": 630,
      "Ġfind": 631,
      "led": 632,
      "Ġeach": 633,
      "ĠThey": 634,
      "Ġcont": 635,
      "Ġinformation": 636,
      "pe": 637,
      "ving": 638,
      "Ġ=": 639,
      "Ġac": 640,
      "Ġob": 641,
      "Ġbl": 642,
      "mes": 643,
      "yth": 644,
      "Ġ``": 645,
      "ĠAI": 646,
      "Ġ```": 647,
      "ge": 648,
      "ric": 649,
      "int": 650,
      "Ġpe": 651,
      "Ġpi": 652,
      "00": 653,
      "ds": 654,
      "ĠJ": 655,
      "one": 656,
      "Ġdif": 657,
      "elf": 658,
      "ally": 659,
      "Ġint": 660,
      "Ġassist": 661,
      "Ġfeel": 662,
      "gy": 663,
      "ue": 664,
      "Ġcal": 665,
      "Ġtheir": 666,
      "Ġwhere": 667,
      "are": 668,
      "so": 669,
      "ys": 670,
      "Ġour": 671,
      "ound": 672,
      "Ġsu": 673,
      "Ġsy": 674,
      "Ġcomm": 675,
      "ass": 676,
      "Ġprogramming": 677,
      "cess": 678,
      "Ġtry": 679,
      "Ġthere": 680,
      "ans": 681,
      "Ġloo": 682,
      "nderst": 683,
      "Ġ4": 684,
      "Ġlist": 685,
      "Ġmag": 686,
      "Ġhelpful": 687,
      "rib": 688,
      "Ġdiffer": 689,
      "Ġro": 690,
      "ates": 691,
      "Ġfl": 692,
      "Ġpart": 693,
      "rain": 694,
      "Ġobject": 695,
      "nderstand": 696,
      "mber": 697,
      "Ġ$": 698,
      "Ġbig": 699,
      "Ġdes": 700,
      "Ġwid": 701,
      "Ġhapp": 702,
      "ĠHere": 703,
      "plain": 704,
      "oid": 705,
      "void": 706,
      "Ġtech": 707,
      "Ġbed": 708,
      "Ġmight": 709,
      "ong": 710,
      "Ġdow": 711,
      "Ġinst": 712,
      "member": 713,
      "ĠThat": 714,
      "mph": 715,
      "Ġchang": 716,
      "Ġalso": 717,
      "Ġeven": 718,
      "Ġwidget": 719,
      "Ġdown": 720,
      "dy": 721,
      "per": 722,
      "use": 723,
      "Ġsay": 724,
      "Ġimp": 725,
      "Ġone": 726,
      "Ġspec": 727,
      "akes": 728,
      "Ġsee": 729,
      "ython": 730,
      "ft": 731,
      "Ġ6": 732,
      "Ġany": 733,
      "unic": 734,
      "fe": 735,
      "ie": 736,
      "rite": 737,
      "self": 738,
      "Ġball": 739,
      "Ġpers": 740,
      "Ġgood": 741,
      "Ġunderstand": 742,
      "Ġplace": 743,
      "very": 744,
      "ĠFor": 745,
      "ĠRe": 746,
      "Ġgive": 747,
      "Ġkeep": 748,
      "Ġproblem": 749,
      "ction": 750,
      "mag": 751,
      "net": 752,
      "vel": 753,
      "ĠO": 754,
      "Ġtas": 755,
      "tic": 756,
      "isk": 757,
      "Ġ100": 758,
      "ĠĠĠ": 759,
      "Ġdifferent": 760,
      "ding": 761,
      "Ġ`": 762,
      "ated": 763,
      "Ġwould": 764,
      "Ġbug": 765,
      "Ġday": 766,
      "Ġevery": 767,
      "Ġcost": 768,
      "utes": 769,
      "ign": 770,
      "Ġbox": 771,
      "Ġwidgets": 772,
      "im": 773,
      "nt": 774,
      "Ġtell": 775,
      "ance": 776,
      "ene": 777,
      "Ġdat": 778,
      "ĠTry": 779,
      "Ġhelps": 780,
      "Ġused": 781,
      "round": 782,
      "om": 783,
      "ose": 784,
      "wn": 785,
      "Ġop": 786,
      "Ġpo": 787,
      "ori": 788,
      "Ġdon": 789,
      "Ġgreat": 790,
      "ical": 791,
      "Ġread": 792,
      "Ġlet": 793,
      "Ġtips": 794,
      "ables": 795,
      "Ġquestion": 796,
      "Ġsmall": 797,
      "Ġmachines": 798,
      "Ġperson": 799,
      "'ll": 800,
      "ast": 801,
      "ght": 802,
      "Ġbre": 803,
      "Ġper": 804,
      "ĠThink": 805,
      "ise": 806,
      "Ġprocess": 807,
      "Ġmeans": 808,
      "Ġmany": 809,
      "magine": 810,
      "Ġ(": 811,
      "Ġbec": 812,
      "Ġph": 813,
      "Ġres": 814,
      "ĠWhen": 815,
      "Ġright": 816,
      "ways": 817,
      "Ġcommunic": 818,
      "iskers": 819,
      "ze": 820,
      "ĠM": 821,
      "ater": 822,
      "Ġthen": 823,
      "Ġmin": 824,
      "lect": 825,
      "Ġsimple": 826,
      "Ġinto": 827,
      "Ġassistant": 828,
      "rint": 829,
      "sw": 830,
      "Ġsame": 831,
      "Ġbu": 832,
      "ons": 833,
      "ĠImagine": 834,
      "time": 835,
      "Ġsol": 836,
      "Ġansw": 837,
      "ĠBe": 838,
      "Ġminutes": 839,
      "fore": 840,
      "gul": 841,
      "oc": 842,
      "ruc": 843,
      "ting": 844,
      "Ġ-": 845,
      "ous": 846,
      "Ġsure": 847,
      "ence": 848,
      "ard": 849,
      "ice": 850,
      "ĠCo": 851,
      "Ġfunction": 852,
      ".\"": 853,
      "em": 854,
      "gan": 855,
      "ies": 856,
      "ial": 857,
      "Ġair": 858,
      "Ġcat": 859,
      "Ġprov": 860,
      "Ġproject": 861,
      "ĠAnd": 862,
      "ĠWell": 863,
      "Ġstep": 864,
      "ĠCan": 865,
      "Ġcreate": 866,
      "rick": 867,
      "Ġopen": 868,
      "bers": 869,
      "cul": 870,
      "crib": 871,
      "duc": 872,
      "iti": 873,
      "kes": 874,
      "Ġtw": 875,
      "Ġthan": 876,
      "Ġwas": 877,
      "Ġset": 878,
      "Ġpound": 879,
      "Ġhour": 880,
      "Ġun": 881,
      "umin": 882,
      "Ġusing": 883,
      "Ġalways": 884,
      "Ġgoals": 885,
      "Ġfriendly": 886,
      "angu": 887,
      "Ġbody": 888,
      "ific": 889,
      "Ġreci": 890,
      "Ġimport": 891,
      "ause": 892,
      "co": 893,
      "pect": 894,
      "uch": 895,
      "Ġthink": 896,
      "Ġcake": 897,
      "Ġsk": 898,
      "Ġmuch": 899,
      "ony": 900,
      "Ġlangu": 901,
      "Ġeas": 902,
      "ack": 903,
      "llumin": 904,
      "Ġmove": 905,
      "Ġval": 906,
      "olo": 907,
      "ople": 908,
      "ility": 909,
      "Ġsymph": 910,
      "cribe": 911,
      "Ġrecipe": 912,
      "Ġimportant": 913,
      "Ġsymphony": 914,
      "ier": 915,
      "ng": 916,
      "tt": 917,
      "Ġty": 918,
      "Ġtal": 919,
      "Ġaway": 920,
      "ĠIllumin": 921,
      "act": 922,
      "Ġproduc": 923,
      "Ġmakes": 924,
      "Ġstore": 925,
      "ĠPat": 926,
      "ĠBut": 927,
      "ĠLet": 928,
      "Ġapples": 929,
      "Ġflow": 930,
      "Ġspecific": 931,
      "Ġbecause": 932,
      "Ġtwo": 933,
      "ĠIlluminates": 934,
      "Ġtr": 935,
      "Ġwater": 936,
      "Ġdi": 937,
      "Ġlong": 938,
      "Ġno": 939,
      "Ġsoft": 940,
      "Ġstart": 941,
      "Ġconf": 942,
      "Ġcomputers": 943,
      "Ġquestions": 944,
      "Ġvariables": 945,
      "Ġcontro": 946,
      "Ġpeople": 947,
      "ĠJay": 948,
      "Ġprovide": 949,
      "ology": 950,
      "ead": 951,
      "ves": 952,
      "ĠG": 953,
      "Ġtra": 954,
      "Ġtake": 955,
      "red": 956,
      "Ġown": 957,
      "Ġmind": 958,
      "Ġmess": 959,
      "Ġelect": 960,
      "Ġorgan": 961,
      "Ġstay": 962,
      "Ġstress": 963,
      "reate": 964,
      "Ġshort": 965,
      "Ġprogram": 966,
      "Ġfile": 967,
      "Ġscene": 968,
      "ĠEx": 969,
      "Ġadd": 970,
      "Ġanswer": 971,
      "Ġcontrol": 972,
      "'d": 973,
      "am": 974,
      "nology": 975,
      "Ġte": 976,
      "Ġover": 977,
      "Ġbat": 978,
      "Ġboo": 979,
      "ory": 980,
      "ary": 981,
      "ĠAh": 982,
      "urn": 983,
      "Ġgoing": 984,
      "Ġlearning": 985,
      "Ġvariable": 986,
      "Ġpeace": 987,
      "Ġpiec": 988,
      "Ġroc": 989,
      "Ġhappy": 990,
      "ĠRemember": 991,
      "Ġtasks": 992,
      "ĠCano": 993,
      "ĠPatrick": 994,
      "day": 995,
      "my": 996,
      "Ġar": 997,
      "Ġcar": 998,
      "Ġbas": 999,
      "Ġmist": 1000,
      "Ġprint": 1001,
      "lear": 1002,
      "Ġlot": 1003,
      "tice": 1004,
      "Ġgl": 1005,
      "Ġrel": 1006,
      "Ġbefore": 1007,
      "Ġask": 1008,
      "Ġexplain": 1009,
      "chie": 1010,
      "Ġplay": 1011,
      "ĠPython": 1012,
      "Ġnumbers": 1013,
      "Ġcreated": 1014,
      "Ġfix": 1015,
      "Ġclass": 1016,
      "Ġcalcul": 1017,
      "Ġdata": 1018,
      "Ġsolve": 1019,
      "Ġlanguage": 1020,
      "cise": 1021,
      "ive": 1022,
      "ues": 1023,
      "zz": 1024,
      "Ġ'": 1025,
      "Ġtakes": 1026,
      "Ġachie": 1027,
      "Ġtoo": 1028,
      "Ġtot": 1029,
      "Ġbit": 1030,
      "Ġlitt": 1031,
      "ows": 1032,
      "ision": 1033,
      "Ġmaking": 1034,
      "Ġhas": 1035,
      "Ġbeing": 1036,
      "ĠWe": 1037,
      "Ġworking": 1038,
      "Ġworks": 1039,
      "Ġmagnet": 1040,
      "gular": 1041,
      "Ġorgani": 1042,
      "Ġpeaceful": 1043,
      "Ġlittle": 1044,
      "'ve": 1045,
      "br": 1046,
      "ient": 1047,
      "side": 1048,
      "Ġavoid": 1049,
      "ergy": 1050,
      "Ġthose": 1051,
      "Ġsun": 1052,
      "Ġtoday": 1053,
      "Ġbest": 1054,
      "Ġbrain": 1055,
      "Ġprac": 1056,
      "Ġho": 1057,
      "Ġdec": 1058,
      "Ġgro": 1059,
      "ick": 1060,
      "ics": 1061,
      "Ġmade": 1062,
      "ĠWrite": 1063,
      "Ġmotiv": 1064,
      "ants": 1065,
      "urs": 1066,
      "Ġenergy": 1067,
      "Ġinterest": 1068,
      "Ġadv": 1069,
      "Ġmachine": 1070,
      "Ġcalled": 1071,
      "Ġbreak": 1072,
      "Ġcommunication": 1073,
      "Ġhours": 1074,
      "Ġrocks": 1075,
      "ull": 1076,
      "we": 1077,
      "Ġtin": 1078,
      "Ġcould": 1079,
      "arth": 1080,
      "Ġcool": 1081,
      "Ġyourself": 1082,
      "Ġhaving": 1083,
      "ersion": 1084,
      "Ġshare": 1085,
      "Ġfew": 1086,
      "Ġheav": 1087,
      "Ġlooking": 1088,
      "Ġdescribe": 1089,
      "Ġinstead": 1090,
      "ngth": 1091,
      "ĠExplain": 1092,
      "Ġtotal": 1093,
      "Ġtiny": 1094,
      "aking": 1095,
      "aps": 1096,
      "cou": 1097,
      "ffe": 1098,
      "ile": 1099,
      "ild": 1100,
      "og": 1101,
      "ond": 1102,
      "python": 1103,
      "ts": 1104,
      "xt": 1105,
      "Ġtrain": 1106,
      "Ġclear": 1107,
      "Ġwrite": 1108,
      "Ġtoy": 1109,
      "Ġpos": 1110,
      "ors": 1111,
      "Ġdist": 1112,
      "Ġeat": 1113,
      "Ġremember": 1114,
      "Ġdoes": 1115,
      "irt": 1116,
      "ations": 1117,
      "ĠWhiskers": 1118,
      "Ġsomeone": 1119,
      "Ġplan": 1120,
      "Ġfeath": 1121,
      "ability": 1122,
      "Ġkind": 1123,
      "ĠDo": 1124,
      "rack": 1125,
      "Ġcaus": 1126,
      "Ġproblems": 1127,
      "tivity": 1128,
      "Ġhappen": 1129,
      "Ġtechy": 1130,
      "Ġbedtime": 1131,
      "Ġchange": 1132,
      "Ġcosts": 1133,
      "Ġsmaller": 1134,
      "ities": 1135,
      "Ġtravel": 1136,
      "Ġdecision": 1137,
      "ursion": 1138,
      "10": 1139,
      ":**": 1140,
      "bability": 1141,
      "light": 1142,
      "oll": 1143,
      "tain": 1144,
      "Ġam": 1145,
      "Ġcall": 1146,
      "rect": 1147,
      "Ġsti": 1148,
      "Ġfood": 1149,
      "Ġpass": 1150,
      "alth": 1151,
      "Ġinc": 1152,
      "arg": 1153,
      "tif": 1154,
      "tive": 1155,
      "times": 1156,
      "Ġlight": 1157,
      "Ġbeen": 1158,
      "irst": 1159,
      "ĠDon": 1160,
      "Ġmanage": 1161,
      "Ġsuper": 1162,
      "Ġobjects": 1163,
      "Ġinstruc": 1164,
      "Ġbuild": 1165,
      "Ġtalk": 1166,
      "Ġglad": 1167,
      "Ġfeathers": 1168,
      "Ġstill": 1169,
      "Ġinstructions": 1170,
      "\",": 1171,
      "ase": 1172,
      "gori": 1173,
      "lic": 1174,
      "ture": 1175,
      "Ġ7": 1176,
      "Ġer": 1177,
      "Ġtrack": 1178,
      "Ġaf": 1179,
      "Ġaround": 1180,
      "ought": 1181,
      "Ġthing": 1182,
      "ature": 1183,
      "reen": 1184,
      "Ġoth": 1185,
      "Ġtool": 1186,
      "Ġbr": 1187,
      "Ġfoll": 1188,
      "ĠNow": 1189,
      "ĠTo": 1190,
      "Ġname": 1191,
      "Ġreally": 1192,
      "ĠAl": 1193,
      "ĠAs": 1194,
      "ents": 1195,
      "Ġstate": 1196,
      "Ġmost": 1197,
      "ĠPro": 1198,
      "Ġspe": 1199,
      "Ġdeep": 1200,
      "aves": 1201,
      "Ġinternet": 1202,
      "Ġwhole": 1203,
      "Ġblue": 1204,
      "ĠJust": 1205,
      "Ġparts": 1206,
      "Ġachieve": 1207,
      "Ġgrow": 1208,
      "ffeine": 1209,
      "Ġerr": 1210,
      "Ġothers": 1211,
      "ax": 1212,
      "line": 1213,
      "ne": 1214,
      "oy": 1215,
      "ware": 1216,
      "Ġ0": 1217,
      "Ġ[": 1218,
      "Ġthought": 1219,
      "Ġcour": 1220,
      "Ġwr": 1221,
      "ree": 1222,
      "Ġtow": 1223,
      "Ġtoys": 1224,
      "ese": 1225,
      "Ġmi": 1226,
      "Ġfrac": 1227,
      "Ġput": 1228,
      "Ġhis": 1229,
      "ked": 1230,
      "Ġlife": 1231,
      "Ġits": 1232,
      "ĠThese": 1233,
      "its": 1234,
      "ĠAvoid": 1235,
      "Ġtimes": 1236,
      "Ġatt": 1237,
      "Ġprogress": 1238,
      "Ġdef": 1239,
      "Ġdesign": 1240,
      "Ġtechnology": 1241,
      "Ġchanges": 1242,
      "Ġ60": 1243,
      "ock": 1244,
      "Ġtyp": 1245,
      "Ġsoftware": 1246,
      "Ġbooks": 1247,
      "Ġpiece": 1248,
      "Ġmagnets": 1249,
      "Ġhold": 1250,
      "Ġadvice": 1251,
      "gorith": 1252,
      "()": 1253,
      "ave": 1254,
      "ail": 1255,
      "ging": 1256,
      "ip": 1257,
      "ill": 1258,
      "ition": 1259,
      "ible": 1260,
      "list": 1261,
      "Ġ+": 1262,
      "Ġel": 1263,
      "ough": 1264,
      "Ġmath": 1265,
      "Ġfall": 1266,
      "Ġhard": 1267,
      "orrect": 1268,
      "Ġdis": 1269,
      "Ġoff": 1270,
      "tho": 1271,
      "ely": 1272,
      "ĠTi": 1273,
      "Ġwhiskers": 1274,
      "Ġitself": 1275,
      "Ġcond": 1276,
      "Ġcomple": 1277,
      "Ġcoding": 1278,
      "ĠUse": 1279,
      "iting": 1280,
      "Ġbeh": 1281,
      "Ġanim": 1282,
      "Ġleaves": 1283,
      "ello": 1284,
      "ides": 1285,
      "Ġchat": 1286,
      "Ġgoal": 1287,
      "Ġallows": 1288,
      "Ġbetwe": 1289,
      "Ġhealth": 1290,
      "Ġkey": 1291,
      "Ġsimp": 1292,
      "ysical": 1293,
      "Ġspecial": 1294,
      "Ġtask": 1295,
      "Ġsky": 1296,
      "Ġconfid": 1297,
      "Ġmistakes": 1298,
      "Ġfollow": 1299,
      "Ġstatement": 1300,
      "Ġelse": 1301,
      "Ġbetween": 1302,
      "Ke": 1303,
      "ap": 1304,
      "bs": 1305,
      "ces": 1306,
      "iet": 1307,
      "kay": 1308,
      "Ġ*": 1309,
      "ĠV": 1310,
      "ĠKe": 1311,
      "Ġturn": 1312,
      "inking": 1313,
      "Ġsign": 1314,
      "Ġtoge": 1315,
      "Ġmus": 1316,
      "Ġinside": 1317,
      "Ġgame": 1318,
      "ult": 1319,
      "Ġasked": 1320,
      "Ġdoing": 1321,
      "Ġlength": 1322,
      "ĠSt": 1323,
      "ages": 1324,
      "Ġversion": 1325,
      "ĠCreate": 1326,
      "Ġalgorith": 1327,
      "Ġshould": 1328,
      "Ġeng": 1329,
      "Ġfiel": 1330,
      "Ġpizz": 1331,
      "Ġsupp": 1332,
      "Ġlook": 1333,
      "Ġlisten": 1334,
      "Ġanything": 1335,
      "Ġdatab": 1336,
      "ĠMake": 1337,
      "Ġvalue": 1338,
      "Ġsunlight": 1339,
      "Ġpractice": 1340,
      "Ġmotivated": 1341,
      "Ġheavier": 1342,
      "ĠKeep": 1343,
      "Ġtogether": 1344,
      "Ġpizza": 1345,
      "app": 1346,
      "den": 1347,
      "ems": 1348,
      "fere": 1349,
      "gain": 1350,
      "ily": 1351,
      "ling": 1352,
      "ni": 1353,
      "nth": 1354,
      "other": 1355,
      "rons": 1356,
      "vir": 1357,
      "Ġagain": 1358,
      "ery": 1359,
      "ative": 1360,
      "Ġsides": 1361,
      "Ġokay": 1362,
      "Ġfact": 1363,
      "Ġpow": 1364,
      "onment": 1365,
      "Ġdig": 1366,
      "Ġdirt": 1367,
      "Ġgent": 1368,
      "Ġcol": 1369,
      "ish": 1370,
      "ĠHe": 1371,
      "Ġonline": 1372,
      "Ġstr": 1373,
      "rav": 1374,
      "Ġasking": 1375,
      "Ġasleep": 1376,
      "Ġwords": 1377,
      "ĠSure": 1378,
      "Ġmetho": 1379,
      "ads": 1380,
      "Ġplants": 1381,
      "Ġate": 1382,
      "orem": 1383,
      "Ġenj": 1384,
      "Ġcreating": 1385,
      "ope": 1386,
      "Ġinterfere": 1387,
      "Ġrecursion": 1388,
      "Ġcontain": 1389,
      "Ġtrying": 1390,
      "Ġsaying": 1391,
      "ĠRegular": 1392,
      "velop": 1393,
      "Ġtells": 1394,
      "Ġperform": 1395,
      "Ġvalues": 1396,
      "Ġmessage": 1397,
      "Ġorganiz": 1398,
      "Ġdistance": 1399,
      "Ġdesigned": 1400,
      "nthes": 1401,
      "vironment": 1402,
      "bug": 1403,
      "ear": 1404,
      "mit": 1405,
      "name": 1406,
      "ual": 1407,
      "ynthes": 1408,
      "Ġ8": 1409,
      "Ġter": 1410,
      "ount": 1411,
      "Ġthinking": 1412,
      "Ġcu": 1413,
      "ating": 1414,
      "atter": 1415,
      "Ġtheorem": 1416,
      "Ġide": 1417,
      "Ġbreat": 1418,
      "Ġpre": 1419,
      "Ġhum": 1420,
      "Ġdone": 1421,
      "arge": 1422,
      "Ġgu": 1423,
      "Ġground": 1424,
      "Ġear": 1425,
      "ĠThere": 1426,
      "ital": 1427,
      "Ġprobability": 1428,
      "ute": 1429,
      "Ġstory": 1430,
      "Ġleft": 1431,
      "otos": 1432,
      "Ġexper": 1433,
      "Ġshow": 1434,
      "orts": 1435,
      "ĠEarth": 1436,
      "Ġcaffeine": 1437,
      "ĠList": 1438,
      "Ġloop": 1439,
      "imit": 1440,
      "Ġpoint": 1441,
      "Ġreading": 1442,
      "Ġcommunicate": 1443,
      "pectful": 1444,
      "Ġeasy": 1445,
      "Ġelectric": 1446,
      "Ġcalculus": 1447,
      "Ġdecisions": 1448,
      "Ġthoughts": 1449,
      "Ġmiles": 1450,
      "Ġattrib": 1451,
      "Ġanimals": 1452,
      "Ġconfident": 1453,
      "Ġpower": 1454,
      "Ġdigital": 1455,
      "Ġgentle": 1456,
      "Ġenjoy": 1457,
      "ynthesis": 1458,
      "otosynthesis": 1459,
      "Create": 1460,
      "gin": 1461,
      "ience": 1462,
      "ner": 1463,
      "ove": 1464,
      "onder": 1465,
      "ss": 1466,
      "ses": 1467,
      "Ġtre": 1468,
      "ercise": 1469,
      "ertain": 1470,
      "Ġwonder": 1471,
      "Ġser": 1472,
      "Ġsur": 1473,
      "Ġsound": 1474,
      "Ġfig": 1475,
      "Ġfast": 1476,
      "Ġpred": 1477,
      "Ġla": 1478,
      "Ġline": 1479,
      "Ġinv": 1480,
      "ark": 1481,
      "Ġlibr": 1482,
      "Ġnor": 1483,
      "Ġequ": 1484,
      "Ġbegin": 1485,
      "ĠHello": 1486,
      "Ġonly": 1487,
      "Ġexp": 1488,
      "Ġvery": 1489,
      "Ġwee": 1490,
      "Ġmean": 1491,
      "Ġconcise": 1492,
      "ĠĠĠĠ": 1493,
      "Ġuseful": 1494,
      "Ġquiet": 1495,
      "ush": 1496,
      "Ġrun": 1497,
      "ugs": 1498,
      "Ġdevelop": 1499,
      "Ġdebug": 1500,
      "ĠSome": 1501,
      "avor": 1502,
      "Ġcase": 1503,
      "Ġkeeps": 1504,
      "Ġphysical": 1505,
      "Ġsteps": 1506,
      "Ġeasier": 1507,
      "Ġtype": 1508,
      "coura": 1509,
      "Ġbuilding": 1510,
      "Ġfraction": 1511,
      "Ġcomplex": 1512,
      "Ġmusic": 1513,
      "Ġalgorithm": 1514,
      "ravity": 1515,
      "Ġbreath": 1516,
      "Ġpredic": 1517,
      "ĠĠĠĠĠĠĠ": 1518,
      "\".": 1519,
      "',": 1520,
      "PI": 1521,
      "be": 1522,
      "by": 1523,
      "bra": 1524,
      "ex": 1525,
      "ff": 1526,
      "ger": 1527,
      "ox": 1528,
      "ph": 1529,
      "put": 1530,
      "vers": 1531,
      "Ġ/": 1532,
      "Ġx": 1533,
      "Ġtri": 1534,
      "ince": 1535,
      "ouble": 1536,
      "Ġwere": 1537,
      "ret": 1538,
      "Ġsec": 1539,
      "Ġthese": 1540,
      "Ġbel": 1541,
      "Ġmis": 1542,
      "anch": 1543,
      "Ġfar": 1544,
      "Ġfavor": 1545,
      "orn": 1546,
      "arm": 1547,
      "ards": 1548,
      "ĠTech": 1549,
      "Ġcoll": 1550,
      "ectiv": 1551,
      "ĠAPI": 1552,
      "Ġforce": 1553,
      "Ġneur": 1554,
      "ational": 1555,
      "ots": 1556,
      "Ġexpl": 1557,
      "Ġ10": 1558,
      "Ġconc": 1559,
      "Ġcons": 1560,
      "Ġconvers": 1561,
      "Ġchec": 1562,
      "Ġfriends": 1563,
      "Ġneeded": 1564,
      "Ġgetting": 1565,
      "Ġscreen": 1566,
      "Ġevent": 1567,
      "Ġactivity": 1568,
      "Ġblock": 1569,
      "gebra": 1570,
      "Ġfeelings": 1571,
      "Ġsuch": 1572,
      "Ġeverything": 1573,
      "Ġboxes": 1574,
      "Ġresp": 1575,
      "ĠCode": 1576,
      "Ġcats": 1577,
      "itive": 1578,
      "Ġproductive": 1579,
      "Ġelectrons": 1580,
      "Ġbasic": 1581,
      "Ġafter": 1582,
      "Ġbranch": 1583,
      "Ġspeed": 1584,
      "Ġtowards": 1585,
      "ails": 1586,
      "Ġsimply": 1587,
      "Ġmethods": 1588,
      "Ġwondering": 1589,
      "Ġlibrary": 1590,
      "ĠSometimes": 1591,
      "Ġfavorite": 1592,
      "St": 1593,
      "`,": 1594,
      "ale": 1595,
      "air": 1596,
      "dies": 1597,
      "gra": 1598,
      "ith": 1599,
      "ious": 1600,
      "mind": 1601,
      "ney": 1602,
      "ome": 1603,
      "rated": 1604,
      "sible": 1605,
      "ule": 1606,
      "ually": 1607,
      "Ġ#": 1608,
      "ination": 1609,
      "Ġcorrect": 1610,
      "atch": 1611,
      "Ġwell": 1612,
      "Ġwake": 1613,
      "reak": 1614,
      "nds": 1615,
      "Ġmed": 1616,
      "Ġmul": 1617,
      "Ġfirst": 1618,
      "Ġpu": 1619,
      "Ġpic": 1620,
      "Ġless": 1621,
      "Ġoffer": 1622,
      "rove": 1623,
      "til": 1624,
      "tip": 1625,
      "icial": 1626,
      "Ġcome": 1627,
      "itch": 1628,
      "Ġref": 1629,
      "Ġrep": 1630,
      "Ġret": 1631,
      "Ġregul": 1632,
      "Ġregular": 1633,
      "igence": 1634,
      "Ġbea": 1635,
      "Ġstruc": 1636,
      "Ġwithout": 1637,
      "Ġanother": 1638,
      "Ġdog": 1639,
      "Ġworry": 1640,
      "ĠSet": 1641,
      "Ġmeet": 1642,
      "Ġ11": 1643,
      "Ġuses": 1644,
      "ourney": 1645,
      "elligence": 1646,
      "ider": 1647,
      "uring": 1648,
      "Ġspots": 1649,
      "Ġboth": 1650,
      "Ġjourney": 1651,
      "resh": 1652,
      "Ġscent": 1653,
      "ĠFirst": 1654,
      "ĠEn": 1655,
      "Ġcare": 1656,
      "Ġinformative": 1657,
      "Ġgiving": 1658,
      "Ġclose": 1659,
      "Ġfeeling": 1660,
      "Ġsyst": 1661,
      "Ġmagic": 1662,
      "ticles": 1663,
      "Ġpoem": 1664,
      "emat": 1665,
      "Ġtemp": 1666,
      "Ġrelax": 1667,
      "Ġplaying": 1668,
      "Ġorganize": 1669,
      "Ġpositive": 1670,
      "Ġcauses": 1671,
      "tificial": 1672,
      "Ġtools": 1673,
      "Ġerror": 1674,
      "Ġcourse": 1675,
      "Ġwriting": 1676,
      "Ġmathemat": 1677,
      "Ġcondition": 1678,
      "Ġdirty": 1679,
      "Ġorganized": 1680,
      "Ġterms": 1681,
      "Ġcuri": 1682,
      "Ġfigure": 1683,
      "Ġdeveloper": 1684,
      "Ġ//": 1685,
      "ectives": 1686,
      "gramming": 1687,
      "Ġmultip": 1688,
      "Ġpicture": 1689,
      "),": 1690,
      "20": 1691,
      "Limit": 1692,
      "NA": 1693,
      "Take": 1694,
      "ames": 1695,
      "cu": 1696,
      "cent": 1697,
      "ctions": 1698,
      "ele": 1699,
      "ever": 1700,
      "gen": 1701,
      "hy": 1702,
      "ik": 1703,
      "iv": 1704,
      "lish": 1705,
      "ming": 1706,
      "pm": 1707,
      "ru": 1708,
      "rink": 1709,
      "sh": 1710,
      "ten": 1711,
      "ted": 1712,
      "und": 1713,
      "vic": 1714,
      "wh": 1715,
      "ĠQ": 1716,
      "Ġau": 1717,
      "ering": 1718,
      "Ġcell": 1719,
      "Ġcur": 1720,
      "Ġcertain": 1721,
      "read": 1722,
      "Ġsl": 1723,
      "Ġsend": 1724,
      "Ġself": 1725,
      "Ġslic": 1726,
      "Ġyear": 1727,
      "Ġtop": 1728,
      "escribe": 1729,
      "Ġmel": 1730,
      "ana": 1731,
      "Ġfree": 1732,
      "Ġpull": 1733,
      "onic": 1734,
      "Ġhy": 1735,
      "Ġhope": 1736,
      "lent": 1737,
      "ket": 1738,
      "kends": 1739,
      "Ġdep": 1740,
      "Ġdest": 1741,
      "Ġdouble": 1742,
      "Ġlab": 1743,
      "Ġlarg": 1744,
      "Ġinde": 1745,
      "tim": 1746,
      "edule": 1747,
      "Ġgravity": 1748,
      "Ġey": 1749,
      "Ġearth": 1750,
      "Ġitems": 1751,
      "Ġcoo": 1752,
      "Ġcoin": 1753,
      "Ġproper": 1754,
      "Ġreal": 1755,
      "Ġhad": 1756,
      "Ġhaik": 1757,
      "igh": 1758,
      "Ġhelping": 1759,
      "Ġforget": 1760,
      "asure": 1761,
      "Ġnear": 1762,
      "Ġleast": 1763,
      "ĠSleep": 1764,
      "ote": 1765,
      "agore": 1766,
      "Ġwebs": 1767,
      "Ġsometimes": 1768,
      "Ġ120": 1769,
      "chedule": 1770,
      "Ġ500": 1771,
      "fort": 1772,
      "Ġbodies": 1773,
      "Ġjo": 1774,
      "ghter": 1775,
      "Ġneeds": 1776,
      "Ġrace": 1777,
      "Ġencoura": 1778,
      "ĠDe": 1779,
      "ĠDNA": 1780,
      "ĠDescribe": 1781,
      "plan": 1782,
      "plugs": 1783,
      "ariables": 1784,
      "avi": 1785,
      "Ġscatter": 1786,
      "mental": 1787,
      "Ġheart": 1788,
      "Ġheads": 1789,
      "Ġsmart": 1790,
      "Ġfinding": 1791,
      "ledge": 1792,
      "ythagore": 1793,
      "Ġroom": 1794,
      "Ġimprove": 1795,
      "iew": 1796,
      "ĠOh": 1797,
      "Ġperf": 1798,
      "Ġpercent": 1799,
      "Ġrespectful": 1800,
      "ocus": 1801,
      "ĠComm": 1802,
      "Ġairplan": 1803,
      "Ġopening": 1804,
      "Ġuntil": 1805,
      "Ġskill": 1806,
      "Ġflowers": 1807,
      "Ġnoise": 1808,
      "Ġstarted": 1809,
      "Ġpieces": 1810,
      "Ġmistake": 1811,
      "Ġinterested": 1812,
      "Ġamount": 1813,
      "ĠProgramming": 1814,
      "Ġerrors": 1815,
      "netic": 1816,
      "Ġtypes": 1817,
      "Ġbehavi": 1818,
      "Ġhealthy": 1819,
      "Ġfield": 1820,
      "Ġsupport": 1821,
      "Ġhumans": 1822,
      "Ġearplugs": 1823,
      "ĠListen": 1824,
      "Ġnorth": 1825,
      "Ġbeginner": 1826,
      "Ġweekends": 1827,
      "Ġtriang": 1828,
      "Ġconcep": 1829,
      "Stay": 1830,
      "Ġpuzz": 1831,
      "Ġreturn": 1832,
      "Ġcurious": 1833,
      "elebr": 1834,
      "vices": 1835,
      "Ġdepend": 1836,
      "Ġhaiku": 1837,
      "ythagorean": 1838,
      "amental": 1839,
      "del": 1840,
      "earn": 1841,
      "eze": 1842,
      "lines": 1843,
      "ns": 1844,
      "ness": 1845,
      "ping": 1846,
      "pot": 1847,
      "rust": 1848,
      "sure": 1849,
      "te": 1850,
      "txt": 1851,
      "uep": 1852,
      "wor": 1853,
      "ward": 1854,
      "Ġtable": 1855,
      "erature": 1856,
      "outh": 1857,
      "ouse": 1858,
      "Ġwarm": 1859,
      "Ġsorts": 1860,
      "Ġmay": 1861,
      "ank": 1862,
      "anana": 1863,
      "Ġfore": 1864,
      "Ġfund": 1865,
      "Ġfocus": 1866,
      "Ġpat": 1867,
      "Ġpop": 1868,
      "Ġhon": 1869,
      "Ġhouse": 1870,
      "enuse": 1871,
      "Ġdrink": 1872,
      "Ġgames": 1873,
      "Ġnight": 1874,
      "Ġem": 1875,
      "Ġwhite": 1876,
      "Ġcom": 1877,
      "ites": 1878,
      "Ġremind": 1879,
      "ĠAn": 1880,
      "ĠAre": 1881,
      "ions": 1882,
      "raid": 1883,
      "outine": 1884,
      "ases": 1885,
      "ries": 1886,
      "Ġnext": 1887,
      "ird": 1888,
      "ircu": 1889,
      "ĠWhere": 1890,
      "Ġexc": 1891,
      "Ġexpect": 1892,
      "Ġability": 1893,
      "Ġvide": 1894,
      "istory": 1895,
      "Ġmeals": 1896,
      "Ġplant": 1897,
      "Ġplates": 1898,
      "less": 1899,
      "Ġ20": 1900,
      "Ġquick": 1901,
      "Ġquote": 1902,
      "Ġ30": 1903,
      "ĠPh": 1904,
      "ĠPythagorean": 1905,
      "Ġboys": 1906,
      "Ġways": 1907,
      "Ġenough": 1908,
      "Ġdevices": 1909,
      "ractice": 1910,
      "Ġnote": 1911,
      "Ġscale": 1912,
      "Ġknown": 1913,
      "Ġknowledge": 1914,
      "Ġgives": 1915,
      "ands": 1916,
      "Ġoutco": 1917,
      "Ġaccess": 1918,
      "Ġobj": 1919,
      "Ġbluep": 1920,
      "Ġlists": 1921,
      "Ġmagical": 1922,
      "Ġmagnetic": 1923,
      "unication": 1924,
      "ĠOr": 1925,
      "Ġbugs": 1926,
      "Ġeveryone": 1927,
      "Ġbreeze": 1928,
      "Ġphotosynthesis": 1929,
      "Ġresult": 1930,
      "Ġanswers": 1931,
      "ĠCoding": 1932,
      "Ġprojects": 1933,
      "Ġtalking": 1934,
      "Ġproductivity": 1935,
      "Ġtran": 1936,
      "Ġdire": 1937,
      "ĠGood": 1938,
      "Ġmessages": 1939,
      "Ġbook": 1940,
      "Ġrelated": 1941,
      "Ġfixed": 1942,
      "Ġcalculate": 1943,
      "Ġpractic": 1944,
      "count": 1945,
      "Ġpossible": 1946,
      "Ġtravels": 1947,
      "tify": 1948,
      "Ġafraid": 1949,
      "Ġcourses": 1950,
      "()`": 1951,
      "ĠTips": 1952,
      "ĠVariables": 1953,
      "Ġengag": 1954,
      "Ġdatabase": 1955,
      "Ġdatabases": 1956,
      "niqu": 1957,
      "Ġcolor": 1958,
      "Ġtrees": 1959,
      "Ġfaster": 1960,
      "Ġexpress": 1961,
      "Ġpredictions": 1962,
      "Ġbelie": 1963,
      "ĠTechnology": 1964,
      "ĠAPIs": 1965,
      "Ġregulate": 1966,
      "Ġstructure": 1967,
      "ĠEnvironment": 1968,
      "Ġmultiply": 1969,
      "ĠQu": 1970,
      "Ġslices": 1971,
      "Ġhypot": 1972,
      "Ġlabel": 1973,
      "Ġlargest": 1974,
      "Ġperfect": 1975,
      "ĠCommunication": 1976,
      "elebrate": 1977,
      "Ġfundamental": 1978,
      "Ġblueprint": 1979,
      "Ġhypotenuse": 1980,
      "')": 1981,
      "('": 1982,
      ").": 1983,
      "Avoid": 1984,
      "Nero": 1985,
      "Zor": 1986,
      "ade": 1987,
      "aks": 1988,
      "bo": 1989,
      "bon": 1990,
      "bot": 1991,
      "bject": 1992,
      "back": 1993,
      "banana": 1994,
      "car": 1995,
      "date": 1996,
      "ether": 1997,
      "face": 1998,
      "he": 1999,
      "ib": 2000,
      "lu": 2001,
      "lled": 2002,
      "no": 2003,
      "othing": 2004,
      "pt": 2005,
      "pec": 2006,
      "ven": 2007,
      "vath": 2008,
      "ws": 2009,
      "zing": 2010,
      "Ġ{": 2011,
      "ĠZor": 2012,
      "Ġtaking": 2013,
      "Ġable": 2014,
      "Ġact": 2015,
      "eries": 2016,
      "ator": 2017,
      "atform": 2018,
      "Ġwatch": 2019,
      "Ġsw": 2020,
      "Ġsit": 2021,
      "Ġside": 2022,
      "Ġsouth": 2023,
      "Ġopp": 2024,
      "Ġbir": 2025,
      "Ġback": 2026,
      "Ġment": 2027,
      "Ġmorn": 2028,
      "Ġfly": 2029,
      "Ġfound": 2030,
      "Ġfresh": 2031,
      "Ġpar": 2032,
      "Ġplent": 2033,
      "ones": 2034,
      "Ġhi": 2035,
      "Ġhim": 2036,
      "ens": 2037,
      "ense": 2038,
      "ences": 2039,
      "Ġdel": 2040,
      "Ġdark": 2041,
      "Ġlines": 2042,
      "Ġlarge": 2043,
      "the": 2044,
      "alse": 2045,
      "arch": 2046,
      "sting": 2047,
      "room": 2048,
      "ross": 2049,
      "edback": 2050,
      "Ġlimit": 2051,
      "Ġlighter": 2052,
      "Ġnec": 2053,
      "Ġnav": 2054,
      "Ġnice": 2055,
      "Ġwhile": 2056,
      "ecursion": 2057,
      "Ġlikely": 2058,
      "Ġmaint": 2059,
      "Ġrece": 2060,
      "ĠAc": 2061,
      "Ġsoothing": 2062,
      "Ġforward": 2063,
      "ented": 2064,
      "Ġstu": 2065,
      "Ġstre": 2066,
      "Ġanal": 2067,
      "riori": 2068,
      "Ġdoor": 2069,
      "Ġmoving": 2070,
      "ook": 2071,
      "ooming": 2072,
      "ĠSince": 2073,
      "Ġabil": 2074,
      "Ġweight": 2075,
      "Ġconn": 2076,
      "Ġtim": 2077,
      "Ġplatform": 2078,
      "ĠYour": 2079,
      "essary": 2080,
      "Ġalgebra": 2081,
      "ange": 2082,
      "Ġallow": 2083,
      "Ġspace": 2084,
      "Ġjac": 2085,
      "Ġrust": 2086,
      "ĠBreak": 2087,
      "Ġprogramm": 2088,
      "Ġenvironment": 2089,
      "Ġscience": 2090,
      "ĠHowever": 2091,
      "Ġrecog": 2092,
      "Ġsearch": 2093,
      "Ġacc": 2094,
      "Ġactiv": 2095,
      "Ġblooming": 2096,
      "Ġpie": 2097,
      "Ġcommun": 2098,
      "Ġdifference": 2099,
      "Ġflip": 2100,
      "Ġbedroom": 2101,
      "Ġchanging": 2102,
      "Ġdaytime": 2103,
      "Ġpole": 2104,
      "oriented": 2105,
      "Ġready": 2106,
      "Ġsetting": 2107,
      "Ġmovement": 2108,
      "Ġstores": 2109,
      "Ġtrust": 2110,
      "Ġdiox": 2111,
      "Ġconfus": 2112,
      "Ġteach": 2113,
      "Ġarticles": 2114,
      "Ġcarbon": 2115,
      "Ġlots": 2116,
      "Ġmotivational": 2117,
      "ngths": 2118,
      "Ġcaused": 2119,
      "Ġincorrect": 2120,
      "argon": 2121,
      "ĠProbability": 2122,
      "Ġsignal": 2123,
      "Ġsignals": 2124,
      "Ġfields": 2125,
      "apple": 2126,
      "dentify": 2127,
      "nize": 2128,
      "ĠRegularly": 2129,
      "Ġidea": 2130,
      "Ġideas": 2131,
      "Ġguide": 2132,
      "Ġelectricity": 2133,
      "Ġattributes": 2134,
      "Ġattribute": 2135,
      "Ġpowerful": 2136,
      "Ġserene": 2137,
      "Ġlawn": 2138,
      "Ġmeaning": 2139,
      "Ġbreathing": 2140,
      "Ġneurons": 2141,
      "Ġchecking": 2142,
      "Ġscreens": 2143,
      "Ġrespond": 2144,
      "Ġtemperature": 2145,
      "Ġcells": 2146,
      "Ġdestination": 2147,
      "Ġindeed": 2148,
      "Ġencouraging": 2149,
      "Ġpercentage": 2150,
      "Ġbehavior": 2151,
      "Ġtriangle": 2152,
      "Ġforest": 2153,
      "Ġpatient": 2154,
      "Ġcomfort": 2155,
      "Ġobjectives": 2156,
      "Ġdirection": 2157,
      "niques": 2158,
      "ĠQuick": 2159,
      "ĠZorvath": 2160,
      "Ġmorning": 2161,
      "Ġplenty": 2162,
      "Ġnecessary": 2163,
      "Ġnavig": 2164,
      "Ġmaintain": 2165,
      "rioriti": 2166,
      "Ġabilities": 2167,
      "Ġrecognize": 2168,
      "Ġdioxide": 2169,
      "(\"": 2170,
      "Ex": 2171,
      "Jo": 2172,
      "affeine": 2173,
      "azing": 2174,
      "book": 2175,
      "con": 2176,
      "cake": 2177,
      "du": 2178,
      "fic": 2179,
      "hn": 2180,
      "ia": 2181,
      "ially": 2182,
      "mos": 2183,
      "mile": 2184,
      "nal": 2185,
      "num": 2186,
      "pis": 2187,
      "sol": 2188,
      "ty": 2189,
      "try": 2190,
      "uti": 2191,
      "ved": 2192,
      "vari": 2193,
      "xy": 2194,
      "Ġ9": 2195,
      "Ġes": 2196,
      "Ġing": 2197,
      "Ġed": 2198,
      "Ġess": 2199,
      "Ġtrou": 2200,
      "Ġtough": 2201,
      "ins": 2202,
      "erry": 2203,
      "Ġcent": 2204,
      "Ġcra": 2205,
      "Ġcircu": 2206,
      "Ġwal": 2207,
      "Ġsa": 2208,
      "Ġoc": 2209,
      "Ġoxy": 2210,
      "anion": 2211,
      "Ġfin": 2212,
      "Ġfam": 2213,
      "Ġpain": 2214,
      "Ġhid": 2215,
      "Ġhistory": 2216,
      "orm": 2217,
      "enti": 2218,
      "enom": 2219,
      "enger": 2220,
      "Ġlat": 2221,
      "Ġlog": 2222,
      "ĠIs": 2223,
      "alle": 2224,
      "Ġind": 2225,
      "ĠNope": 2226,
      "step": 2227,
      "Ġgen": 2228,
      "Ġgreen": 2229,
      "Ġnut": 2230,
      "Ġnam": 2231,
      "Ġnature": 2232,
      "Ġemit": 2233,
      "Ġwhy": 2234,
      "Ġwhisk": 2235,
      "veled": 2236,
      "acc": 2237,
      "acter": 2238,
      "Ġuser": 2239,
      "ism": 2240,
      "Ġmass": 2241,
      "ĠAr": 2242,
      "Ġorb": 2243,
      "Ġorange": 2244,
      "Ġform": 2245,
      "ĠWith": 2246,
      "ulants": 2247,
      "Ġmode": 2248,
      "Ġmoment": 2249,
      "Ġmodel": 2250,
      "Ġnever": 2251,
      "oooo": 2252,
      "Ġlead": 2253,
      "irping": 2254,
      "ĠSh": 2255,
      "ĠStim": 2256,
      "Ġabove": 2257,
      "Ġvis": 2258,
      "Ġvirt": 2259,
      "Ġvacc": 2260,
      "istance": 2261,
      "quakes": 2262,
      "ources": 2263,
      "roud": 2264,
      "iding": 2265,
      "Ġchar": 2266,
      "Ġchem": 2267,
      "Ġchalle": 2268,
      "Ġchirping": 2269,
      "ĠCons": 2270,
      "ĠCaffeine": 2271,
      "riendly": 2272,
      "Ġfeature": 2273,
      "Ġfeedback": 2274,
      "Ġatmos": 2275,
      "Ġqual": 2276,
      "ĠPl": 2277,
      "Ġcompanion": 2278,
      "angled": 2279,
      "abor": 2280,
      "olves": 2281,
      "Ġjargon": 2282,
      "Ġroutine": 2283,
      "estful": 2284,
      "ĠDistance": 2285,
      "uck": 2286,
      "uct": 2287,
      "ugg": 2288,
      "Ġcreator": 2289,
      "Ġdear": 2290,
      "Ġfilled": 2291,
      "Ġinternal": 2292,
      "ĠRecursion": 2293,
      "ĠRestful": 2294,
      "ĠEach": 2295,
      "Ġfunctions": 2296,
      "osed": 2297,
      "osite": 2298,
      "Ġadding": 2299,
      "Ġoutside": 2300,
      "ather": 2301,
      "Ġcontent": 2302,
      "Ġactions": 2303,
      "Ġacross": 2304,
      "Ġintelligence": 2305,
      "Ġcalm": 2306,
      "Ġsyn": 2307,
      "ĠOf": 2308,
      "tick": 2309,
      "Ġpoles": 2310,
      "Ġpersonal": 2311,
      "Ġbreaks": 2312,
      "Ġphenom": 2313,
      "Ġresources": 2314,
      "Ġbuy": 2315,
      "Ġsolving": 2316,
      "Ġopens": 2317,
      "comp": 2318,
      "cover": 2319,
      "Ġlanguages": 2320,
      "tty": 2321,
      "Ġflower": 2322,
      "Ġtrue": 2323,
      "Ġdiv": 2324,
      "ĠGit": 2325,
      "Ġtraveled": 2326,
      "redient": 2327,
      "Ġmessenger": 2328,
      "Ġartificial": 2329,
      "Ġbased": 2330,
      "Ġprints": 2331,
      "Ġinterests": 2332,
      "Ġinteresting": 2333,
      "Ġheavy": 2334,
      "Ġeating": 2335,
      "Ġdoesn": 2336,
      "Ġamazing": 2337,
      "Ġinclu": 2338,
      "Ġbring": 2339,
      "ĠAlways": 2340,
      "Ġdeeper": 2341,
      "Ġfractions": 2342,
      "Ġdefine": 2343,
      "Ġharder": 2344,
      "Ġconduct": 2345,
      "Ġbehave": 2346,
      "Ġchatbot": 2347,
      "Ġstatements": 2348,
      "ĠVersion": 2349,
      "Ġlengths": 2350,
      "Ġengine": 2351,
      "Ġcolle": 2352,
      "Ġcontainers": 2353,
      "Ġprev": 2354,
      "Ġpretty": 2355,
      "Ġexperi": 2356,
      "Ġsurround": 2357,
      "Ġsurface": 2358,
      "Ġequal": 2359,
      "example": 2360,
      "phere": 2361,
      "Ġsecret": 2362,
      "Ġcollabor": 2363,
      "Ġexplore": 2364,
      "Ġconversation": 2365,
      "ometry": 2366,
      "Ġcorrectly": 2367,
      "Ġbeauti": 2368,
      "Ġsystems": 2369,
      "Ġmathematics": 2370,
      "Ġeye": 2371,
      "Ġcooking": 2372,
      "Ġwebsites": 2373,
      "Ġairplanes": 2374,
      "Ġconcept": 2375,
      "Ġpuzzle": 2376,
      "Ġdepends": 2377,
      "Ġtablets": 2378,
      "Ġfocused": 2379,
      "Ġpopul": 2380,
      "ĠPhotosynthesis": 2381,
      "Ġnotebook": 2382,
      "Ġpracticing": 2383,
      "pecially": 2384,
      "Ġactually": 2385,
      "Ġswitch": 2386,
      "Ġopposite": 2387,
      "Ġbirds": 2388,
      "Ġdelic": 2389,
      "Ġanaly": 2390,
      "Ġjacket": 2391,
      "Ġrustling": 2392,
      "Ġactivities": 2393,
      "Ġcomfortable": 2394,
      "Ġnavigate": 2395,
      "rioritize": 2396,
      "Exercise": 2397,
      "duce": 2398,
      "variable": 2399,
      "Ġespecially": 2400,
      "Ġingredient": 2401,
      "Ġessenti": 2402,
      "Ġcrash": 2403,
      "Ġoxygen": 2404,
      "Ġhidden": 2405,
      "Ġnamed": 2406,
      "Ġemitted": 2407,
      "Ġwhisker": 2408,
      "ĠStimulants": 2409,
      "Ġvirtual": 2410,
      "ĠConsider": 2411,
      "Ġatmosphere": 2412,
      "Ġphenomen": 2413,
      "Ġbeautiful": 2414,
      "Ġessentially": 2415,
      "!\"": 2416,
      "\")": 2417,
      "\"]": 2418,
      "05": 2419,
      "Get": 2420,
      "Identify": 2421,
      "Num": 2422,
      "PU": 2423,
      "Practice": 2424,
      "Use": 2425,
      "].": 2426,
      "amp": 2427,
      "ams": 2428,
      "bles": 2429,
      "ced": 2430,
      "cial": 2431,
      "der": 2432,
      "ddy": 2433,
      "drated": 2434,
      "ef": 2435,
      "eg": 2436,
      "eer": 2437,
      "eometry": 2438,
      "full": 2439,
      "friendly": 2440,
      "gs": 2441,
      "gies": 2442,
      "hol": 2443,
      "haps": 2444,
      "io": 2445,
      "iant": 2446,
      "ither": 2447,
      "just": 2448,
      "lor": 2449,
      "make": 2450,
      "mil": 2451,
      "oser": 2452,
      "pace": 2453,
      "ring": 2454,
      "ray": 2455,
      "sk": 2456,
      "to": 2457,
      "telligence": 2458,
      "uh": 2459,
      "vable": 2460,
      "vous": 2461,
      "view": 2462,
      "war": 2463,
      "wake": 2464,
      "with": 2465,
      "Ġ}": 2466,
      "Ġri": 2467,
      "Ġrain": 2468,
      "Ġtect": 2469,
      "Ġtrick": 2470,
      "Ġtails": 2471,
      "Ġtank": 2472,
      "eren": 2473,
      "erable": 2474,
      "erator": 2475,
      "Ġcy": 2476,
      "Ġcrust": 2477,
      "aton": 2478,
      "atur": 2479,
      "Ġwind": 2480,
      "Ġwings": 2481,
      "Ġwave": 2482,
      "rent": 2483,
      "Ġsum": 2484,
      "Ġsqu": 2485,
      "Ġswe": 2486,
      "Ġsince": 2487,
      "Ġschedule": 2488,
      "Ġoper": 2489,
      "Ġill": 2490,
      "Ġbi": 2491,
      "Ġbri": 2492,
      "Ġbus": 2493,
      "Ġbaking": 2494,
      "Ġbase": 2495,
      "Ġfan": 2496,
      "Ġfro": 2497,
      "Ġfight": 2498,
      "Ġface": 2499,
      "Ġfull": 2500,
      "Ġfru": 2501,
      "Ġfalse": 2502,
      "Ġpath": 2503,
      "Ġpush": 2504,
      "Ġproud": 2505,
      "Ġhal": 2506,
      "Ġhorm": 2507,
      "ord": 2508,
      "lecul": 2509,
      "lease": 2510,
      "lengths": 2511,
      "Ġda": 2512,
      "Ġdre": 2513,
      "Ġdet": 2514,
      "Ġduring": 2515,
      "Ġlay": 2516,
      "Ġlake": 2517,
      "Ġlater": 2518,
      "Ġlush": 2519,
      "Ġoften": 2520,
      "thly": 2521,
      "eline": 2522,
      "ars": 2523,
      "aring": 2524,
      "arlight": 2525,
      "ĠNaps": 2526,
      "stab": 2527,
      "ties": 2528,
      "Ġiss": 2529,
      "Ġlive": 2530,
      "ĠTV": 2531,
      "ĠTell": 2532,
      "Ġger": 2533,
      "Ġgeometry": 2534,
      "Ġnic": 2535,
      "Ġnow": 2536,
      "Ġnaps": 2537,
      "Ġnatur": 2538,
      "Ġemp": 2539,
      "Ġeff": 2540,
      "Ġecon": 2541,
      "Ġeither": 2542,
      "owing": 2543,
      "Ġcomes": 2544,
      "mend": 2545,
      "Ġunder": 2546,
      "ĠThen": 2547,
      "ĠThird": 2548,
      "econd": 2549,
      "lliant": 2550,
      "Ġmask": 2551,
      "uty": 2552,
      "utely": 2553,
      "Ġrest": 2554,
      "Ġreas": 2555,
      "Ġreach": 2556,
      "Ġhand": 2557,
      "Ġsocial": 2558,
      "Ġbegan": 2559,
      "ĠHi": 2560,
      "enture": 2561,
      "ules": 2562,
      "ulate": 2563,
      "Ġones": 2564,
      "Ġstret": 2565,
      "Ġwithin": 2566,
      "Ġass": 2567,
      "Ġarea": 2568,
      "Ġmoves": 2569,
      "Ġmolecul": 2570,
      "Ġneg": 2571,
      "Ġneut": 2572,
      "term": 2573,
      "ĠSchedule": 2574,
      "ĠSeren": 2575,
      "ĠSecond": 2576,
      "ĠWhy": 2577,
      "otine": 2578,
      "Ġexact": 2579,
      "Ġexamp": 2580,
      "Ġview": 2581,
      "pping": 2582,
      "Ġmead": 2583,
      "Ġmeasure": 2584,
      "mmy": 2585,
      "cherry": 2586,
      "Ġcharg": 2587,
      "Ġcheer": 2588,
      "Ġchlor": 2589,
      "ĠCour": 2590,
      "ĠClear": 2591,
      "ĠCelebrate": 2592,
      "Ġalone": 2593,
      "Ġalong": 2594,
      "Ġshows": 2595,
      "Ġsharing": 2596,
      "Ġqueries": 2597,
      "Ġcompass": 2598,
      "Ġkitch": 2599,
      "Ġsports": 2600,
      "olutely": 2601,
      "Ġrhy": 2602,
      "Ġrules": 2603,
      "Ġprograms": 2604,
      "Ġensure": 2605,
      "Ġcreates": 2606,
      "ract": 2607,
      "ractions": 2608,
      "Ġfill": 2609,
      "Ġwanted": 2610,
      "Ġnotes": 2611,
      "Ġinteract": 2612,
      "Ġknows": 2613,
      "ĠRes": 2614,
      "ilt": 2615,
      "Ġkeys": 2616,
      "ĠLast": 2617,
      "ĠLimit": 2618,
      "ĠLearn": 2619,
      "sistor": 2620,
      "Ġclock": 2621,
      "Ġcloser": 2622,
      "ĠIntelligence": 2623,
      "Ġrecom": 2624,
      "Ġapps": 2625,
      "Ġsimil": 2626,
      "peed": 2627,
      "Ġaccount": 2628,
      "Ġaccomp": 2629,
      "Ġbloc": 2630,
      "Ġblack": 2631,
      "Ġdiffic": 2632,
      "Ġsynt": 2633,
      "Ġcommon": 2634,
      "Ġseek": 2635,
      "Ġseem": 2636,
      "Ġunderstanding": 2637,
      "ĠOn": 2638,
      "ĠOne": 2639,
      "omics": 2640,
      "Ġperhaps": 2641,
      "Ġphys": 2642,
      "Ġphones": 2643,
      "Ġbuddy": 2644,
      "Ġbuilt": 2645,
      "onses": 2646,
      "cohol": 2647,
      "Ġeasily": 2648,
      "Ġproducing": 2649,
      "Ġproduction": 2650,
      "Ġflowing": 2651,
      "Ġdiet": 2652,
      "Ġconfuse": 2653,
      "ĠGreat": 2654,
      "Ġstaying": 2655,
      "Ġstressed": 2656,
      "aming": 2657,
      "Ġtea": 2658,
      "Ġoverwh": 2659,
      "Ġart": 2660,
      "Ġfixing": 2661,
      "Ġachievable": 2662,
      "Ġworkspace": 2663,
      "Ġadventure": 2664,
      "apses": 2665,
      "ationsh": 2666,
      "Ġplanet": 2667,
      "Ġcausing": 2668,
      "Ġhappens": 2669,
      "tains": 2670,
      "Ġcalls": 2671,
      "Ġincred": 2672,
      "Ġmanageable": 2673,
      "ĠAlgebra": 2674,
      "Ġspeak": 2675,
      "Ġ[\"": 2676,
      "Ġtower": 2677,
      "Ġmix": 2678,
      "Ġ+=": 2679,
      "Ġdiscover": 2680,
      "ĠTime": 2681,
      "ĠTimmy": 2682,
      "Ġsimpl": 2683,
      "bsolutely": 2684,
      "ĠStay": 2685,
      "ĠStress": 2686,
      "ĠStarlight": 2687,
      "Ġlistening": 2688,
      "append": 2689,
      "Ġstrong": 2690,
      "Ġcontains": 2691,
      "ĠTherefore": 2692,
      "Ġshowing": 2693,
      "ĠLists": 2694,
      "Ġelectrical": 2695,
      "Ġenjoying": 2696,
      "Ġtreasure": 2697,
      "Ġinvolves": 2698,
      "Ġdebugging": 2699,
      "Ġmiss": 2700,
      "Ġneuron": 2701,
      "Ġconsum": 2702,
      "Ġconsider": 2703,
      "Ġcheck": 2704,
      "Ġresponses": 2705,
      "Ġbasically": 2706,
      "Ġafterno": 2707,
      "Ġmedia": 2708,
      "Ġreflect": 2709,
      "Ġrepres": 2710,
      "Ġregularly": 2711,
      "Ġbeauty": 2712,
      "Ġsystem": 2713,
      "Ġmathematical": 2714,
      "Ġaud": 2715,
      "Ġauth": 2716,
      "Ġcurrent": 2717,
      "Ġcurtains": 2718,
      "readlines": 2719,
      "Ġmelo": 2720,
      "Ġmelaton": 2721,
      "Ġpulling": 2722,
      "Ġearthquakes": 2723,
      "Ġproperties": 2724,
      "Ġnearby": 2725,
      "Ġscattered": 2726,
      "Ġskills": 2727,
      "Ġmaybe": 2728,
      "Ġhoney": 2729,
      "ĠAnother": 2730,
      "Ġexpected": 2731,
      "Ġvideo": 2732,
      "Ġquickly": 2733,
      "Ġoutcomes": 2734,
      "Ġtransistor": 2735,
      "Ġengaging": 2736,
      "Ġmental": 2737,
      "Ġstuff": 2738,
      "Ġtimeline": 2739,
      "Ġcommunity": 2740,
      "mileage": 2741,
      "Ġtrouble": 2742,
      "Ġcircuits": 2743,
      "Ġsafe": 2744,
      "Ġocc": 2745,
      "Ġfinish": 2746,
      "Ġfamily": 2747,
      "Ġlatest": 2748,
      "Ġlogic": 2749,
      "ĠArtificial": 2750,
      "Ġorbit": 2751,
      "ĠShow": 2752,
      "Ġcharacter": 2753,
      "Ġchemical": 2754,
      "Ġfeatures": 2755,
      "Ġsynapses": 2756,
      "Ġincluding": 2757,
      "Ġconductor": 2758,
      "Ġexperiences": 2759,
      "Ġpopular": 2760,
      "Ġdelicious": 2761,
      "Ġanalyze": 2762,
      "fully": 2763,
      "Ġraining": 2764,
      "Ġtectonic": 2765,
      "Ġwavelengths": 2766,
      "Ġbrilliant": 2767,
      "Ġfrosting": 2768,
      "Ġhalf": 2769,
      "stablish": 2770,
      "Ġnicotine": 2771,
      "Ġnatural": 2772,
      "Ġeconomics": 2773,
      "Ġreason": 2774,
      "Ġstretch": 2775,
      "Ġmolecules": 2776,
      "Ġexamples": 2777,
      "Ġmeadow": 2778,
      "Ġkitchen": 2779,
      "Ġrhyme": 2780,
      "ĠLastly": 2781,
      "Ġrecommend": 2782,
      "Ġsimilar": 2783,
      "Ġaccomplish": 2784,
      "Ġblocks": 2785,
      "Ġblackout": 2786,
      "Ġdifficult": 2787,
      "Ġsyntax": 2788,
      "Ġoverwhel": 2789,
      "Ġafternoon": 2790,
      "Ġmelatonin": 2791,
      "):": 2792,
      "30": 2793,
      "67": 2794,
      "?\"": 2795,
      "Be": 2796,
      "Break": 2797,
      "Car": 2798,
      "Establish": 2799,
      "Jan": 2800,
      "Learn": 2801,
      "Mind": 2802,
      "Set": 2803,
      "Tu": 2804,
      "VN": 2805,
      "])": 2806,
      "ah": 2807,
      "aws": 2808,
      "bt": 2809,
      "ball": 2810,
      "bling": 2811,
      "cle": 2812,
      "cri": 2813,
      "cum": 2814,
      "cient": 2815,
      "dec": 2816,
      "dri": 2817,
      "dates": 2818,
      "dog": 2819,
      "ext": 2820,
      "fl": 2821,
      "file": 2822,
      "gle": 2823,
      "ground": 2824,
      "her": 2825,
      "iz": 2826,
      "iqu": 2827,
      "ius": 2828,
      "ips": 2829,
      "know": 2830,
      "lo": 2831,
      "mor": 2832,
      "mal": 2833,
      "mine": 2834,
      "move": 2835,
      "nter": 2836,
      "of": 2837,
      "oat": 2838,
      "otions": 2839,
      "oice": 2840,
      "pare": 2841,
      "pectives": 2842,
      "ron": 2843,
      "right": 2844,
      "ronic": 2845,
      "sm": 2846,
      "tons": 2847,
      "understand": 2848,
      "ydrated": 2849,
      "Ġent": 2850,
      "Ġtut": 2851,
      "Ġtreat": 2852,
      "Ġtug": 2853,
      "Ġtree": 2854,
      "Ġai": 2855,
      "ervous": 2856,
      "Ġcle": 2857,
      "Ġcity": 2858,
      "Ġcents": 2859,
      "Ġwon": 2860,
      "Ġwond": 2861,
      "Ġwins": 2862,
      "Ġsing": 2863,
      "Ġsong": 2864,
      "Ġsense": 2865,
      "Ġstick": 2866,
      "Ġold": 2867,
      "Ġyet": 2868,
      "Ġimag": 2869,
      "Ġimagine": 2870,
      "Ġbake": 2871,
      "Ġbene": 2872,
      "Ġbill": 2873,
      "Ġbless": 2874,
      "Ġmar": 2875,
      "Ġmant": 2876,
      "ano": 2877,
      "anage": 2878,
      "ances": 2879,
      "anced": 2880,
      "Ġfit": 2881,
      "Ġfur": 2882,
      "Ġfrust": 2883,
      "Ġpatter": 2884,
      "Ġpair": 2885,
      "Ġharn": 2886,
      "Ġhigh": 2887,
      "Ġhuh": 2888,
      "oring": 2889,
      "orage": 2890,
      "lex": 2891,
      "enity": 2892,
      "Ġdri": 2893,
      "Ġlo": 2894,
      "Ġland": 2895,
      "Ġlove": 2896,
      "els": 2897,
      "elves": 2898,
      "ĠNib": 2899,
      "ĠNoooo": 2900,
      "ster": 2901,
      "row": 2902,
      "Ġisn": 2903,
      "Ġlives": 2904,
      "ĠTake": 2905,
      "Ġgre": 2906,
      "Ġgot": 2907,
      "Ġgrou": 2908,
      "Ġgene": 2909,
      "Ġgave": 2910,
      "Ġnervous": 2911,
      "Ġwhether": 2912,
      "Ġiterable": 2913,
      "ically": 2914,
      "icient": 2915,
      "acing": 2916,
      "aced": 2917,
      "action": 2918,
      "actions": 2919,
      "Ġups": 2920,
      "aytime": 2921,
      "ety": 2922,
      "ections": 2923,
      "mput": 2924,
      "Ġwild": 2925,
      "sera": 2926,
      "ited": 2927,
      "itation": 2928,
      "itten": 2929,
      "Ġmap": 2930,
      "utter": 2931,
      "uture": 2932,
      "utput": 2933,
      "Ġrele": 2934,
      "Ġrech": 2935,
      "Ġrepe": 2936,
      "Ġreduce": 2937,
      "ĠAd": 2938,
      "ĠApp": 2939,
      "ĠAbsolutely": 2940,
      "Ġhello": 2941,
      "Ġbee": 2942,
      "Ġbees": 2943,
      "ĠHydrated": 2944,
      "Ġforum": 2945,
      "ĠWould": 2946,
      "Ġonce": 2947,
      "Ġstra": 2948,
      "Ġstack": 2949,
      "Ġstands": 2950,
      "Ġstuck": 2951,
      "Ġaspect": 2952,
      "asing": 2953,
      "Ġancient": 2954,
      "Ġdocum": 2955,
      "Ġaren": 2956,
      "Ġmov": 2957,
      "Ġmotion": 2958,
      "oothly": 2959,
      "ĠSc": 2960,
      "ĠSVN": 2961,
      "ĠWhich": 2962,
      "ĠWhether": 2963,
      "Ġext": 2964,
      "Ġexercise": 2965,
      "Ġweb": 2966,
      "Ġweigh": 2967,
      "Ġweather": 2968,
      "Ġmem": 2969,
      "Ġconst": 2970,
      "Ġusually": 2971,
      "ending": 2972,
      "ended": 2973,
      "adlines": 2974,
      "fulness": 2975,
      "idual": 2976,
      "Ġcharge": 2977,
      "ĠCPU": 2978,
      "Ġ50": 2979,
      "Ġsho": 2980,
      "Ġshake": 2981,
      "Ġshade": 2982,
      "ĠYouTu": 2983,
      "ategies": 2984,
      "ĠPractice": 2985,
      "ĠPlease": 2986,
      "Ġcomplic": 2987,
      "Ġju": 2988,
      "ify": 2989,
      "ĠBug": 2990,
      "ĠBugs": 2991,
      "ĠDaytime": 2992,
      "ucle": 2993,
      "ugging": 2994,
      "Ġlearned": 2995,
      "play": 2996,
      "Ġdeadlines": 2997,
      "Ġfiles": 2998,
      "ava": 2999,
      "ĠFind": 3000,
      "ĠFractions": 3001,
      "open": 3002,
      "Ġinterru": 3003,
      "ments": 3004,
      "ĠEating": 3005,
      "Ġcap": 3006,
      "Ġcause": 3007,
      "Ġheard": 3008,
      "Ġgiant": 3009,
      "Ġgiven": 3010,
      "Ġadap": 3011,
      "Ġadjust": 3012,
      "Ġupdate": 3013,
      "Ġupdates": 3014,
      "sistent": 3015,
      "Ġoutput": 3016,
      "Ġclar": 3017,
      "Ġclick": 3018,
      "Ġclutter": 3019,
      "Ġsmell": 3020,
      "Ġsmile": 3021,
      "Ġsmoothly": 3022,
      "Ġvarious": 3023,
      "Ġvariety": 3024,
      "Ġrecord": 3025,
      "Ġapplic": 3026,
      "Ġappear": 3027,
      "Ġappending": 3028,
      "Ġaction": 3029,
      "gement": 3030,
      "Ġpiano": 3031,
      "ĠJo": 3032,
      "ĠJava": 3033,
      "Ġintended": 3034,
      "Ġrope": 3035,
      "Ġroads": 3036,
      "Ġrows": 3037,
      "Ġfloat": 3038,
      "Ġbigger": 3039,
      "Ġtechn": 3040,
      "Ġtechniques": 3041,
      "Ġinstance": 3042,
      "Ġsays": 3043,
      "Ġperspectives": 3044,
      "vely": 3045,
      "ĠOutput": 3046,
      "Ġtelling": 3047,
      "Ġopin": 3048,
      "ories": 3049,
      "Ġlets": 3050,
      "Ġletter": 3051,
      "Ġprocessing": 3052,
      "Ġprocessor": 3053,
      "ĠMy": 3054,
      "ĠBeing": 3055,
      "ĠBefore": 3056,
      "ĠCodec": 3057,
      "ĠComput": 3058,
      "Ġproviding": 3059,
      "Ġunex": 3060,
      "Ġunsure": 3061,
      "Ġuniqu": 3062,
      "come": 3063,
      "pected": 3064,
      "ĠPatient": 3065,
      "Ġdirect": 3066,
      "ĠGo": 3067,
      "ĠGravity": 3068,
      "ĠExercise": 3069,
      "Ġanswering": 3070,
      "Ġteam": 3071,
      "Ġrock": 3072,
      "Ġcars": 3073,
      "Ġcarry": 3074,
      "Ġcarries": 3075,
      "Ġbases": 3076,
      "Ġbasics": 3077,
      "Ġrelationsh": 3078,
      "Ġclassic": 3079,
      "Ġbrains": 3080,
      "Ġhob": 3081,
      "Ġgrown": 3082,
      "ulls": 3083,
      "Ġplann": 3084,
      "althy": 3085,
      "Ġwrong": 3086,
      "Ġwritten": 3087,
      "Ġattract": 3088,
      "Ġdefines": 3089,
      "Ġtyped": 3090,
      "Ġholds": 3091,
      "Ġdisc": 3092,
      "Ġdiscoura": 3093,
      "Ġdisplay": 3094,
      "Ġcomplete": 3095,
      "Ġanimal": 3096,
      "Ġkeybo": 3097,
      "Ġconfidence": 3098,
      "apy": 3099,
      "Ġturns": 3100,
      "Ġalgorithms": 3101,
      "Ġstrugg": 3102,
      "Ġstrategies": 3103,
      "Ġmethod": 3104,
      "Ġorganizing": 3105,
      "Ġterm": 3106,
      "Ġcup": 3107,
      "Ġhuman": 3108,
      "Ġearly": 3109,
      "Ġserenity": 3110,
      "Ġsounds": 3111,
      "Ġlau": 3112,
      "Ġnormal": 3113,
      "Ġequation": 3114,
      "Ġequations": 3115,
      "Ġweek": 3116,
      "Ġbreathe": 3117,
      "Ġsecond": 3118,
      "ĠTechniques": 3119,
      "Ġconversations": 3120,
      "Ġmeditation": 3121,
      "Ġrefresh": 3122,
      "ĠSetting": 3123,
      "Ġcarefully": 3124,
      "Ġrelaxing": 3125,
      "Ġrelaxation": 3126,
      "Ġpictures": 3127,
      "ividual": 3128,
      "shell": 3129,
      "Ġslice": 3130,
      "Ġsends": 3131,
      "Ġyears": 3132,
      "Ġtopic": 3133,
      "Ġeyes": 3134,
      "Ġcook": 3135,
      "Ġproperly": 3136,
      "Ġwebsite": 3137,
      "Ġjob": 3138,
      "Ġjoke": 3139,
      "Ġscattering": 3140,
      "Ġairplane": 3141,
      "Ġconcepts": 3142,
      "Ġdepending": 3143,
      "work": 3144,
      "Ġhonest": 3145,
      "Ġnighttime": 3146,
      "Ġemotions": 3147,
      "Ġreminder": 3148,
      "Ġexcited": 3149,
      "Ġvideos": 3150,
      "Ġoutcome": 3151,
      "Ġtranqu": 3152,
      "Ġengaged": 3153,
      "Ġbelieve": 3154,
      "Ġstructures": 3155,
      "Ġlabels": 3156,
      "ademy": 3157,
      "body": 3158,
      "bjects": 3159,
      "ibly": 3160,
      "Ġwatching": 3161,
      "Ġsitu": 3162,
      "Ġflying": 3163,
      "Ġparticles": 3164,
      "Ġrecei": 3165,
      "Ġconnect": 3166,
      "Ġconnections": 3167,
      "Ġplatforms": 3168,
      "Ġprogrammed": 3169,
      "Ġincorrectly": 3170,
      "Ġmaintaining": 3171,
      "John": 3172,
      "solving": 3173,
      "Ġwalk": 3174,
      "Ġindividual": 3175,
      "Ġnutshell": 3176,
      "Ġvaccine": 3177,
      "Ġchalleng": 3178,
      "Ġquality": 3179,
      "ĠPlants": 3180,
      "Ġdivide": 3181,
      "Ġengineering": 3182,
      "Ġcollaborate": 3183,
      "Ġingredients": 3184,
      "Ġphenomenon": 3185,
      "Numbers": 3186,
      "Ġtricky": 3187,
      "Ġbike": 3188,
      "Ġbusy": 3189,
      "Ġfruits": 3190,
      "Ġpushes": 3191,
      "Ġhormone": 3192,
      "Ġdaily": 3193,
      "Ġdreams": 3194,
      "Ġdetails": 3195,
      "ĠTVs": 3196,
      "Ġreaches": 3197,
      "Ġassign": 3198,
      "Ġnegative": 3199,
      "Ġneutrons": 3200,
      "Ġexactly": 3201,
      "ĠCoursera": 3202,
      "ĠRespectful": 3203,
      "Ġphysics": 3204,
      "Ġplanets": 3205,
      "Ġincredibly": 3206,
      "Ġsimpler": 3207,
      "Ġmissing": 3208,
      "Ġconsuming": 3209,
      "Ġaudience": 3210,
      "Ġmelody": 3211,
      "Ġoccur": 3212,
      "Jane": 3213,
      "flow": 3214,
      "herit": 3215,
      "Ġsongs": 3216,
      "Ġbillions": 3217,
      "Ġmarvel": 3218,
      "Ġmantle": 3219,
      "Ġfrustrated": 3220,
      "Ġpatterns": 3221,
      "Ġharness": 3222,
      "Ġhighway": 3223,
      "ĠNibbles": 3224,
      "Ġgenetic": 3225,
      "Ġrecharge": 3226,
      "Ġstraight": 3227,
      "ĠYouTube": 3228,
      "Ġcomplicated": 3229,
      "Ġinterrupt": 3230,
      "Ġadapt": 3231,
      "Ġapplications": 3232,
      "ĠCodecademy": 3233,
      "ĠComputers": 3234,
      "Ġunexpected": 3235,
      "Ġunique": 3236,
      "Ġkeyboard": 3237,
      "!?": 3238,
      "'`": 3239,
      "'\".": 3240,
      "..": 3241,
      "100": 3242,
      "AI": 3243,
      "AR": 3244,
      "Ac": 3245,
      "Ah": 3246,
      "Arom": 3247,
      "Bank": 3248,
      "Co": 3249,
      "Don": 3250,
      "Hey": 3251,
      "Hello": 3252,
      "Make": 3253,
      "MAR": 3254,
      "Ph": 3255,
      "Prioritize": 3256,
      "Stick": 3257,
      "SMAR": 3258,
      "Tech": 3259,
      "Track": 3260,
      "Ve": 3261,
      "__": 3262,
      "ares": 3263,
      "ape": 3264,
      "ault": 3265,
      "bound": 3266,
      "bits": 3267,
      "cin": 3268,
      "cis": 3269,
      "caps": 3270,
      "certain": 3271,
      "circu": 3272,
      "cape": 3273,
      "dg": 3274,
      "dr": 3275,
      "dat": 3276,
      "eet": 3277,
      "eals": 3278,
      "eople": 3279,
      "fast": 3280,
      "gre": 3281,
      "ged": 3282,
      "gum": 3283,
      "ggs": 3284,
      "hero": 3285,
      "hic": 3286,
      "hoo": 3287,
      "hood": 3288,
      "hyth": 3289,
      "head": 3290,
      "hello": 3291,
      "ied": 3292,
      "iable": 3293,
      "iled": 3294,
      "iast": 3295,
      "ired": 3296,
      "ibr": 3297,
      "ively": 3298,
      "ihood": 3299,
      "late": 3300,
      "lue": 3301,
      "lass": 3302,
      "lack": 3303,
      "lock": 3304,
      "lihood": 3305,
      "mo": 3306,
      "med": 3307,
      "nect": 3308,
      "nge": 3309,
      "nack": 3310,
      "oth": 3311,
      "oly": 3312,
      "opl": 3313,
      "ops": 3314,
      "omes": 3315,
      "obody": 3316,
      "pen": 3317,
      "pose": 3318,
      "rin": 3319,
      "ral": 3320,
      "rum": 3321,
      "rate": 3322,
      "rue": 3323,
      "rinking": 3324,
      "sum": 3325,
      "sess": 3326,
      "speed": 3327,
      "tr": 3328,
      "tw": 3329,
      "ton": 3330,
      "tle": 3331,
      "ters": 3332,
      "tot": 3333,
      "tos": 3334,
      "turing": 3335,
      "tories": 3336,
      "ub": 3337,
      "up": 3338,
      "uth": 3339,
      "ued": 3340,
      "ude": 3341,
      "ura": 3342,
      "ution": 3343,
      "uries": 3344,
      "vant": 3345,
      "xing": 3346,
      "you": 3347,
      "yrib": 3348,
      "ymine": 3349,
      "zily": 3350,
      "Ġtack": 3351,
      "Ġtale": 3352,
      "Ġapis": 3353,
      "Ġawake": 3354,
      "ining": 3355,
      "inal": 3356,
      "ined": 3357,
      "init": 3358,
      "iness": 3359,
      "erate": 3360,
      "eriv": 3361,
      "ercis": 3362,
      "ouds": 3363,
      "oubling": 3364,
      "ounter": 3365,
      "Ġthird": 3366,
      "Ġthymine": 3367,
      "Ġcame": 3368,
      "Ġcruc": 3369,
      "Ġcount": 3370,
      "Ġcelebrate": 3371,
      "Ġcounter": 3372,
      "Ġwaves": 3373,
      "rets": 3374,
      "reads": 3375,
      "remove": 3376,
      "reasing": 3377,
      "Ġsor": 3378,
      "Ġsac": 3379,
      "Ġsent": 3380,
      "Ġsuc": 3381,
      "Ġsug": 3382,
      "Ġsick": 3383,
      "Ġsugg": 3384,
      "Ġoh": 3385,
      "Ġoven": 3386,
      "Ġthems": 3387,
      "nding": 3388,
      "Ġyog": 3389,
      "Ġtown": 3390,
      "Ġtone": 3391,
      "Ġid": 3392,
      "Ġidentify": 3393,
      "Ġble": 3394,
      "Ġbal": 3395,
      "Ġbad": 3396,
      "Ġbath": 3397,
      "Ġborn": 3398,
      "esit": 3399,
      "estion": 3400,
      "Ġmat": 3401,
      "Ġmon": 3402,
      "Ġmid": 3403,
      "Ġmount": 3404,
      "Ġmowing": 3405,
      "ann": 3406,
      "anine": 3407,
      "Ġfas": 3408,
      "Ġfour": 3409,
      "Ġfond": 3410,
      "Ġflex": 3411,
      "Ġfuture": 3412,
      "Ġpul": 3413,
      "Ġpur": 3414,
      "Ġpol": 3415,
      "Ġpres": 3416,
      "Ġpink": 3417,
      "Ġpress": 3418,
      "Ġpast": 3419,
      "Ġprioritize": 3420,
      "Ġpaws": 3421,
      "onies": 3422,
      "onucle": 3423,
      "onnect": 3424,
      "Ġhey": 3425,
      "Ġhun": 3426,
      "Ġhide": 3427,
      "Ġhug": 3428,
      "Ġhues": 3429,
      "Ġharm": 3430,
      "Ġhesit": 3431,
      "ork": 3432,
      "orter": 3433,
      "ording": 3434,
      "leigh": 3435,
      "lete": 3436,
      "enine": 3437,
      "kets": 3438,
      "Ġdy": 3439,
      "Ġdro": 3440,
      "Ġdid": 3441,
      "Ġdense": 3442,
      "Ġderiv": 3443,
      "Ġlad": 3444,
      "Ġlands": 3445,
      "Ġluck": 3446,
      "thus": 3447,
      "elax": 3448,
      "elcome": 3449,
      "alcul": 3450,
      "Ġinch": 3451,
      "Ġinno": 3452,
      "ĠNot": 3453,
      "ĠNobody": 3454,
      "sts": 3455,
      "stead": 3456,
      "stering": 3457,
      "roy": 3458,
      "roach": 3459,
      "roduc": 3460,
      "Ġliving": 3461,
      "Ġlikes": 3462,
      "ĠTric": 3463,
      "ĠTaking": 3464,
      "ĠTrue": 3465,
      "Ġgr": 3466,
      "Ġgra": 3467,
      "Ġgas": 3468,
      "Ġnet": 3469,
      "Ġnap": 3470,
      "Ġeh": 3471,
      "Ġele": 3472,
      "Ġeggs": 3473,
      "Ġitem": 3474,
      "icit": 3475,
      "ictories": 3476,
      "metho": 3477,
      "Ġunderst": 3478,
      "ayleigh": 3479,
      "ection": 3480,
      "ective": 3481,
      "Ġlikelihood": 3482,
      "Ġwise": 3483,
      "llars": 3484,
      "ĠUnderstand": 3485,
      "itar": 3486,
      "Ġprote": 3487,
      "Ġproduce": 3488,
      "Ġmain": 3489,
      "Ġmastering": 3490,
      "Ġred": 3491,
      "Ġrequ": 3492,
      "Ġreus": 3493,
      "Ġrepl": 3494,
      "Ġreign": 3495,
      "Ġreview": 3496,
      "ĠApis": 3497,
      "Ġsoon": 3498,
      "Ġsoil": 3499,
      "Ġorig": 3500,
      "Ġorder": 3501,
      "igg": 3502,
      "igor": 3503,
      "igestion": 3504,
      "Ġbend": 3505,
      "Ġhelpers": 3506,
      "ĠWelcome": 3507,
      "ional": 3508,
      "ula": 3509,
      "uly": 3510,
      "ulation": 3511,
      "ulary": 3512,
      "ults": 3513,
      "Ġste": 3514,
      "Ġstates": 3515,
      "Ġstorage": 3516,
      "Ġstops": 3517,
      "rases": 3518,
      "output": 3519,
      "asy": 3520,
      "asura": 3521,
      "Ġanx": 3522,
      "Ġangle": 3523,
      "ritic": 3524,
      "Ġdoll": 3525,
      "Ġdoors": 3526,
      "Ġword": 3527,
      "Ġworked": 3528,
      "Ġworries": 3529,
      "Ġareas": 3530,
      "lden": 3531,
      "Ġlean": 3532,
      "Ġlegs": 3533,
      "irring": 3534,
      "ĠSi": 3535,
      "ĠSpeed": 3536,
      "ĠWho": 3537,
      "aging": 3538,
      "agance": 3539,
      "agulls": 3540,
      "Ġexec": 3541,
      "Ġexercis": 3542,
      "unks": 3543,
      "unities": 3544,
      "Ġvoc": 3545,
      "Ġvio": 3546,
      "Ġvoice": 3547,
      "Ġvictories": 3548,
      "istics": 3549,
      "pped": 3550,
      "Ġmeasura": 3551,
      "Ġ17": 3552,
      "Ġconso": 3553,
      "Ġconsistent": 3554,
      "mmar": 3555,
      "add": 3556,
      "ource": 3557,
      "chugging": 3558,
      "indfulness": 3559,
      "Ġplaced": 3560,
      "lest": 3561,
      "idance": 3562,
      "Ġ24": 3563,
      "Ġ25": 3564,
      "Ġchunks": 3565,
      "ĠCar": 3566,
      "ĠClass": 3567,
      "ĠConnect": 3568,
      "ĠCalcul": 3569,
      "Ġalign": 3570,
      "Ġalcohol": 3571,
      "aintain": 3572,
      "Ġshot": 3573,
      "Ġshore": 3574,
      "Ġshif": 3575,
      "Ġshap": 3576,
      "Ġshorter": 3577,
      "urate": 3578,
      "Ġfeet": 3579,
      "Ġgoes": 3580,
      "Ġgolden": 3581,
      "ustrate": 3582,
      "ĠPeople": 3583,
      "Ġcompare": 3584,
      "verns": 3585,
      "abulary": 3586,
      "Ġspell": 3587,
      "Ġspark": 3588,
      "Ġspray": 3589,
      "Ġjoy": 3590,
      "uss": 3591,
      "Ġneeding": 3592,
      "Ġrate": 3593,
      "Ġrise": 3594,
      "Ġrhyth": 3595,
      "ĠBed": 3596,
      "ĠBoth": 3597,
      "ameter": 3598,
      "Ġenco": 3599,
      "Ġenthus": 3600,
      "ĠDark": 3601,
      "ĠDouble": 3602,
      "ĠDrinking": 3603,
      "ucose": 3604,
      "Ġcreative": 3605,
      "Ġdeal": 3606,
      "Ġdeals": 3607,
      "Ġdegre": 3608,
      "Ġdelete": 3609,
      "racting": 3610,
      "Ġgets": 3611,
      "Ġbutton": 3612,
      "Ġmyster": 3613,
      "avy": 3614,
      "avier": 3615,
      "ĠFe": 3616,
      "ĠFour": 3617,
      "ĠFrom": 3618,
      "ĠFalse": 3619,
      "ophy": 3620,
      "Ġinteractions": 3621,
      "Ġsleeping": 3622,
      "ĠRome": 3623,
      "ĠRoutine": 3624,
      "ĠRayleigh": 3625,
      "illed": 3626,
      "mself": 3627,
      "ĠEat": 3628,
      "ĠEvery": 3629,
      "ĠElect": 3630,
      "Ġwilling": 3631,
      "Ġcasting": 3632,
      "Ġheight": 3633,
      "Ġkept": 3634,
      "Ġmanip": 3635,
      "Ġmanaging": 3636,
      "ĠLong": 3637,
      "osure": 3638,
      "ossible": 3639,
      "Ġadenine": 3640,
      "Ġupon": 3641,
      "Ġclues": 3642,
      "Ġclosed": 3643,
      "Ġclouds": 3644,
      "ĠInter": 3645,
      "ĠInside": 3646,
      "ĠInstead": 3647,
      "Ġnews": 3648,
      "Ġapply": 3649,
      "Ġapproach": 3650,
      "Ġseagulls": 3651,
      "Ġcontin": 3652,
      "Ġcontrib": 3653,
      "Ġcontents": 3654,
      "Ġcontext": 3655,
      "Ġ==": 3656,
      "Ġblog": 3657,
      "Ġpillars": 3658,
      "Ġintric": 3659,
      "Ġinteg": 3660,
      "Ġintroduc": 3661,
      "Ġassistance": 3662,
      "Ġsubject": 3663,
      "Ġcomments": 3664,
      "Ġfli": 3665,
      "Ġdesk": 3666,
      "Ġdescri": 3667,
      "Ġevening": 3668,
      "Ġdowns": 3669,
      "Ġimpossible": 3670,
      "Ġ66": 3671,
      "ĠOver": 3672,
      "ĠOpen": 3673,
      "ticip": 3674,
      "Ġ`'": 3675,
      "Ġeveryday": 3676,
      "omb": 3677,
      "Ġoptions": 3678,
      "Ġpond": 3679,
      "orials": 3680,
      "Ġreader": 3681,
      "asts": 3682,
      "Ġbreaking": 3683,
      "Ġprocesses": 3684,
      "Ġbecame": 3685,
      "Ġbecome": 3686,
      "Ġbecomes": 3687,
      "Ġphrases": 3688,
      "Ġrespect": 3689,
      "Ġresults": 3690,
      "ĠMary": 3691,
      "ĠManage": 3692,
      "ĠMeals": 3693,
      "ĠMindfulness": 3694,
      "ĠMaintain": 3695,
      "Ġassistants": 3696,
      "Ġsolved": 3697,
      "Ġthanks": 3698,
      "Ġsettle": 3699,
      "Ġunits": 3700,
      "Ġuncertain": 3701,
      "Ġunlock": 3702,
      "ification": 3703,
      "Ġskin": 3704,
      "Ġskip": 3705,
      "Ġimportantly": 3706,
      "acts": 3707,
      "Ġflows": 3708,
      "Ġtrans": 3709,
      "Ġtruly": 3710,
      "Ġlonger": 3711,
      "Ġnod": 3712,
      "Ġnotice": 3713,
      "Ġsoftly": 3714,
      "Ġstarts": 3715,
      "Ġstarting": 3716,
      "ĠGree": 3717,
      "Ġelectronic": 3718,
      "ĠExample": 3719,
      "ĠaddNumbers": 3720,
      "Ġtext": 3721,
      "Ġartif": 3722,
      "Ġarray": 3723,
      "Ġargum": 3724,
      "Ġbasket": 3725,
      "Ġglow": 3726,
      "Ġglucose": 3727,
      "Ġreliable": 3728,
      "Ġtotally": 3729,
      "Ġhome": 3730,
      "Ġdecide": 3731,
      "Ġpossess": 3732,
      "Ġdistant": 3733,
      "Ġkinds": 3734,
      "Ġhappened": 3735,
      "Ġamb": 3736,
      "Ġincreasing": 3737,
      "Ġmanagement": 3738,
      "Ġsuperhero": 3739,
      "lication": 3740,
      "Ġfollows": 3741,
      "ĠAlgorith": 3742,
      "ĠAlcohol": 3743,
      "ĠAlright": 3744,
      "ĠAsk": 3745,
      "ĠProtons": 3746,
      "Ġspeaking": 3747,
      "Ġtowering": 3748,
      "Ġputting": 3749,
      "Ġdefault": 3750,
      "Ġtyping": 3751,
      "Ġtypically": 3752,
      "avender": 3753,
      "itionally": 3754,
      "Ġbehind": 3755,
      "Ġfollowing": 3756,
      "apse": 3757,
      "Ġturned": 3758,
      "Ġmusical": 3759,
      "Ġengines": 3760,
      "Ġsupposed": 3761,
      "Ġfacts": 3762,
      "ĠHealthy": 3763,
      "ĠHeavy": 3764,
      "Ġstring": 3765,
      "ravagance": 3766,
      "Ġcontainer": 3767,
      "Ġprepare": 3768,
      "Ġguanine": 3769,
      "Ġguitar": 3770,
      "Ġguidance": 3771,
      "Ġexpert": 3772,
      "Ġexperts": 3773,
      "Ġexperience": 3774,
      "Ġlooping": 3775,
      "Ġfiguring": 3776,
      "Ġlazily": 3777,
      "Ġinviting": 3778,
      "Ġbegins": 3779,
      "Ġexposure": 3780,
      "Ġdevelopers": 3781,
      "Ġdebugger": 3782,
      "Ġpredict": 3783,
      "Ġpredicting": 3784,
      "being": 3785,
      "oxyrib": 3786,
      "phism": 3787,
      "Ġsecrets": 3788,
      "Ġbelow": 3789,
      "Ġmisunderstand": 3790,
      "Ġcollision": 3791,
      "Ġcollides": 3792,
      "Ġexploring": 3793,
      "Ġexplicit": 3794,
      "Ġconversational": 3795,
      "minded": 3796,
      "Ġrepel": 3797,
      "Ġrepair": 3798,
      "Ġregulates": 3799,
      "Ġstructuring": 3800,
      "ĠFirstly": 3801,
      "ĠEnough": 3802,
      "Ġtemplate": 3803,
      "Ġmultiple": 3804,
      "hydr": 3805,
      "whirring": 3806,
      "Ġsending": 3807,
      "Ġtopics": 3808,
      "Ġdestroy": 3809,
      "Ġencouragement": 3810,
      "ĠDevelop": 3811,
      "ĠDeoxyrib": 3812,
      "ĠDehydr": 3813,
      "Ġsmartph": 3814,
      "Ġpercentages": 3815,
      "Ġamounts": 3816,
      "Ġbehaviors": 3817,
      "Ġtriangles": 3818,
      "Ġpuzzles": 3819,
      "Ġreturns": 3820,
      "world": 3821,
      "Ġemails": 3822,
      "lessly": 3823,
      "ĠPhysical": 3824,
      "Ġpractical": 3825,
      "Ġexpressed": 3826,
      "Ġbelieving": 3827,
      "Ġbelieved": 3828,
      "Ġstructured": 3829,
      "Ġmultiplying": 3830,
      "heavier": 3831,
      "Ġmentor": 3832,
      "Ġhimself": 3833,
      "Ġreceive": 3834,
      "ĠActivity": 3835,
      "Ġstudy": 3836,
      "Ġstream": 3837,
      "Ġstrengths": 3838,
      "Ġtimer": 3839,
      "Ġprogrammers": 3840,
      "Ġaccurate": 3841,
      "Ġcommunities": 3842,
      "Ġconfusing": 3843,
      "Ġconfused": 3844,
      "Ġconfusion": 3845,
      "Ġteaching": 3846,
      "Ġmeaningful": 3847,
      "Ġresponding": 3848,
      "Join": 3849,
      "numbers": 3850,
      "Ġ90": 3851,
      "ĠedX": 3852,
      "Ġcenter": 3853,
      "Ġcenturies": 3854,
      "Ġwalking": 3855,
      "Ġpainted": 3856,
      "ĠIsn": 3857,
      "Ġindigestion": 3858,
      "Ġgener": 3859,
      "Ġgenius": 3860,
      "Ġnutri": 3861,
      "Ġusers": 3862,
      "Ġformula": 3863,
      "Ġvisit": 3864,
      "Ġvaccines": 3865,
      "Ġchallenge": 3866,
      "Ġqualities": 3867,
      "atherapy": 3868,
      "Ġcolleag": 3869,
      "Ġcollections": 3870,
      "Ġprevent": 3871,
      "Ġprevious": 3872,
      "Ġsurrounded": 3873,
      "Ġcollaboration": 3874,
      "Ġcrashes": 3875,
      "Ġphenomena": 3876,
      "egrated": 3877,
      "Ġcycle": 3878,
      "Ġcytos": 3879,
      "Ġwinding": 3880,
      "Ġsquare": 3881,
      "Ġsquares": 3882,
      "Ġswee": 3883,
      "Ġsweet": 3884,
      "Ġoperations": 3885,
      "Ġillness": 3886,
      "Ġillustrate": 3887,
      "Ġlayer": 3888,
      "Ġissue": 3889,
      "Ġissues": 3890,
      "Ġgerm": 3891,
      "Ġgerms": 3892,
      "Ġempty": 3893,
      "Ġefficient": 3894,
      "Ġcharges": 3895,
      "Ġcharged": 3896,
      "Ġchloropl": 3897,
      "Ġchlorophy": 3898,
      "Ġensures": 3899,
      "ĠOnce": 3900,
      "ĠOnline": 3901,
      "Ġtreasures": 3902,
      "Ġconsidered": 3903,
      "Ġreflecting": 3904,
      "Ġrepresent": 3905,
      "Ġrepresents": 3906,
      "Ġauthor": 3907,
      "Ġauthors": 3908,
      "Ġcharacteristics": 3909,
      "Ġrecommendation": 3910,
      "Ġoverwhelming": 3911,
      "Ġoverwhelmed": 3912,
      "Minded": 3913,
      "btracting": 3914,
      "filename": 3915,
      "ized": 3916,
      "known": 3917,
      "morphism": 3918,
      "smart": 3919,
      "Ġenters": 3920,
      "Ġtutorials": 3921,
      "Ġtreats": 3922,
      "Ġclean": 3923,
      "Ġwonders": 3924,
      "Ġsinging": 3925,
      "Ġimagination": 3926,
      "Ġbeneath": 3927,
      "Ġblessing": 3928,
      "Ġpairs": 3929,
      "Ġgrew": 3930,
      "Ġgroup": 3931,
      "Ġrelevant": 3932,
      "Ġrepeated": 3933,
      "ĠAdd": 3934,
      "ĠApplication": 3935,
      "Ġforums": 3936,
      "Ġaspects": 3937,
      "Ġdocuments": 3938,
      "Ġmovies": 3939,
      "ĠScreen": 3940,
      "Ġextravagance": 3941,
      "Ġconstruc": 3942,
      "Ġshopping": 3943,
      "Ġjudg": 3944,
      "Ġcapable": 3945,
      "Ġclarification": 3946,
      "ĠJohn": 3947,
      "Ġfloats": 3948,
      "Ġtechnical": 3949,
      "Ġopinions": 3950,
      "ĠGoals": 3951,
      "Ġrelationships": 3952,
      "Ġhobby": 3953,
      "Ġplanned": 3954,
      "Ġdiscuss": 3955,
      "Ġdiscouraged": 3956,
      "Ġstruggling": 3957,
      "Ġlaughter": 3958,
      "Ġrefreshing": 3959,
      "Ġtranquility": 3960,
      "Ġsituation": 3961,
      "Ġreceiving": 3962,
      "Ġchallenges": 3963,
      "heritance": 3964,
      "Ġunexpectedly": 3965,
      "Account": 3966,
      "Aromatherapy": 3967,
      "BankAccount": 3968,
      "Code": 3969,
      "Physical": 3970,
      "SMART": 3971,
      "Vehic": 3972,
      "cinating": 3973,
      "data": 3974,
      "model": 3975,
      "olymorphism": 3976,
      "total": 3977,
      "Ġtackle": 3978,
      "Ġcrucial": 3979,
      "Ġcounteracts": 3980,
      "Ġsorry": 3981,
      "Ġsacred": 3982,
      "Ġsuccess": 3983,
      "Ġsugar": 3984,
      "Ġthemselves": 3985,
      "Ġyoga": 3986,
      "Ġblending": 3987,
      "Ġmountain": 3988,
      "Ġfascinating": 3989,
      "Ġflexible": 3990,
      "Ġpulled": 3991,
      "Ġpurpose": 3992,
      "Ġpressure": 3993,
      "onucleic": 3994,
      "Ġhunt": 3995,
      "Ġhuge": 3996,
      "Ġhesitate": 3997,
      "Ġladder": 3998,
      "Ġlandscape": 3999,
      "elaxation": 4000,
      "Ġinnov": 4001,
      "ĠTricks": 4002,
      "Ġgrammar": 4003,
      "Ġnetwork": 4004,
      "methods": 4005,
      "Ġunderstood": 4006,
      "Ġproteins": 4007,
      "Ġreusable": 4008,
      "Ġreigns": 4009,
      "Ġoriginal": 4010,
      "Ġvocabulary": 4011,
      "Ġmeasurable": 4012,
      "Ġconsole": 4013,
      "ĠCalculus": 4014,
      "Ġsparkling": 4015,
      "Ġrhythm": 4016,
      "Ġencoding": 4017,
      "Ġenthusiast": 4018,
      "Ġdegrees": 4019,
      "Ġmysterious": 4020,
      "ĠEveryone": 4021,
      "Ġmanipulate": 4022,
      "Ġdescrip": 4023,
      "ticipate": 4024,
      "Ġuncertainty": 4025,
      "Ġartifact": 4026,
      "Ġarrays": 4027,
      "Ġbasketball": 4028,
      "Ġmisunderstandings": 4029,
      "ĠDeoxyribonucleic": 4030,
      "ĠDehydration": 4031,
      "Ġcytosine": 4032,
      "Ġchloroplasts": 4033,
      "Ġchlorophyll": 4034,
      "Vehicle": 4035
    },
    "merges": [
      [
        "Ġ",
        "t"
      ],
      [
        "Ġ",
        "a"
      ],
      [
        "č",
        "Ċ"
      ],
      [
        "i",
        "n"
      ],
      [
        "e",
        "r"
      ],
      [
        "o",
        "u"
      ],
      [
        "Ġt",
        "h"
      ],
      [
        "Ġ",
        "c"
      ],
      [
        "a",
        "t"
      ],
      [
        "Ġ",
        "w"
      ],
      [
        "r",
        "e"
      ],
      [
        "Ġ",
        "s"
      ],
      [
        "Ġ",
        "o"
      ],
      [
        "Ġth",
        "e"
      ],
      [
        "n",
        "d"
      ],
      [
        "Ġ",
        "y"
      ],
      [
        "Ġy",
        "ou"
      ],
      [
        "Ġ",
        "čĊ"
      ],
      [
        "Ġt",
        "o"
      ],
      [
        "Ġ",
        "i"
      ],
      [
        "Ġ",
        "b"
      ],
      [
        "e",
        "s"
      ],
      [
        "in",
        "g"
      ],
      [
        "Ġ",
        "m"
      ],
      [
        "a",
        "n"
      ],
      [
        "Ġ",
        "f"
      ],
      [
        "Ġ",
        "p"
      ],
      [
        "o",
        "n"
      ],
      [
        "Ġ",
        "h"
      ],
      [
        "o",
        "r"
      ],
      [
        "l",
        "e"
      ],
      [
        "Ġa",
        "nd"
      ],
      [
        "e",
        "n"
      ],
      [
        "k",
        "e"
      ],
      [
        "Ġ",
        "d"
      ],
      [
        "Ġ",
        "l"
      ],
      [
        "Ġo",
        "f"
      ],
      [
        "Ġ",
        "I"
      ],
      [
        "t",
        "h"
      ],
      [
        "e",
        "l"
      ],
      [
        "a",
        "l"
      ],
      [
        "-",
        "-"
      ],
      [
        "Ġ",
        "in"
      ],
      [
        "a",
        "r"
      ],
      [
        "'",
        "s"
      ],
      [
        "Ġ",
        "N"
      ],
      [
        "s",
        "t"
      ],
      [
        "r",
        "o"
      ],
      [
        "er",
        "o"
      ],
      [
        "t",
        "i"
      ],
      [
        "ĠN",
        "ero"
      ],
      [
        "Ġi",
        "s"
      ],
      [
        "e",
        "d"
      ],
      [
        "Ġl",
        "i"
      ],
      [
        "Ġ",
        "T"
      ],
      [
        "Ġ",
        "g"
      ],
      [
        "Ġ",
        "n"
      ],
      [
        "Ġ",
        "e"
      ],
      [
        "Ġw",
        "h"
      ],
      [
        "Ġi",
        "t"
      ],
      [
        "i",
        "c"
      ],
      [
        "o",
        "w"
      ],
      [
        "Ġc",
        "o"
      ],
      [
        "m",
        "e"
      ],
      [
        "v",
        "e"
      ],
      [
        "a",
        "c"
      ],
      [
        "Ġ",
        "u"
      ],
      [
        "a",
        "y"
      ],
      [
        "ĠT",
        "h"
      ],
      [
        "e",
        "t"
      ],
      [
        "Ġc",
        "an"
      ],
      [
        "e",
        "c"
      ],
      [
        "Ġyou",
        "r"
      ],
      [
        "Ġth",
        "at"
      ],
      [
        "Ġli",
        "ke"
      ],
      [
        "m",
        "p"
      ],
      [
        "Ġw",
        "i"
      ],
      [
        "i",
        "s"
      ],
      [
        "l",
        "l"
      ],
      [
        "Ġ",
        "U"
      ],
      [
        "s",
        "er"
      ],
      [
        "i",
        "t"
      ],
      [
        "Ġp",
        "ro"
      ],
      [
        "Ġm",
        "a"
      ],
      [
        "Ġ",
        "--"
      ],
      [
        "ĠU",
        "ser"
      ],
      [
        "Ġ--",
        "-"
      ],
      [
        "u",
        "t"
      ],
      [
        "Ġ",
        "re"
      ],
      [
        "s",
        "e"
      ],
      [
        "Ġ",
        "A"
      ],
      [
        "Ġh",
        "a"
      ],
      [
        "Ġs",
        "o"
      ],
      [
        "Ġo",
        "r"
      ],
      [
        "i",
        "g"
      ],
      [
        "Ġh",
        "el"
      ],
      [
        "d",
        "e"
      ],
      [
        "Ġb",
        "e"
      ],
      [
        "Ġhel",
        "p"
      ],
      [
        "Ġ",
        "H"
      ],
      [
        "Ġf",
        "or"
      ],
      [
        "er",
        "e"
      ],
      [
        "er",
        "s"
      ],
      [
        "Ġ",
        "W"
      ],
      [
        "i",
        "on"
      ],
      [
        "en",
        "t"
      ],
      [
        "*",
        "*"
      ],
      [
        "u",
        "l"
      ],
      [
        "Ġo",
        "n"
      ],
      [
        "Ġs",
        "t"
      ],
      [
        "Ġwi",
        "th"
      ],
      [
        "r",
        "a"
      ],
      [
        "e",
        "p"
      ],
      [
        "l",
        "y"
      ],
      [
        "ti",
        "on"
      ],
      [
        "ou",
        "t"
      ],
      [
        "Ġa",
        "s"
      ],
      [
        "a",
        "s"
      ],
      [
        "Ġa",
        "n"
      ],
      [
        "r",
        "i"
      ],
      [
        "Ġd",
        "o"
      ],
      [
        "Ġw",
        "or"
      ],
      [
        "Ġa",
        "re"
      ],
      [
        "'",
        "re"
      ],
      [
        "Ġm",
        "o"
      ],
      [
        "e",
        "y"
      ],
      [
        "ĠI",
        "t"
      ],
      [
        "Ġn",
        "e"
      ],
      [
        "an",
        "t"
      ],
      [
        "t",
        "er"
      ],
      [
        "l",
        "d"
      ],
      [
        "o",
        "o"
      ],
      [
        "Ġ",
        "le"
      ],
      [
        "Ġwh",
        "at"
      ],
      [
        "i",
        "r"
      ],
      [
        "Ġha",
        "ve"
      ],
      [
        "Ġma",
        "ke"
      ],
      [
        "u",
        "m"
      ],
      [
        "b",
        "le"
      ],
      [
        "Ġ",
        "S"
      ],
      [
        "at",
        "ion"
      ],
      [
        "h",
        "t"
      ],
      [
        "re",
        "at"
      ],
      [
        "ĠW",
        "h"
      ],
      [
        "o",
        "t"
      ],
      [
        "a",
        "g"
      ],
      [
        "Ġe",
        "x"
      ],
      [
        "Ġa",
        "b"
      ],
      [
        "u",
        "n"
      ],
      [
        "Ġ",
        "v"
      ],
      [
        "i",
        "st"
      ],
      [
        "p",
        "p"
      ],
      [
        "'",
        "m"
      ],
      [
        "in",
        "e"
      ],
      [
        "Ġw",
        "e"
      ],
      [
        "Ġso",
        "me"
      ],
      [
        "Ġm",
        "e"
      ],
      [
        "q",
        "u"
      ],
      [
        "Ġ",
        "1"
      ],
      [
        "Ġc",
        "on"
      ],
      [
        "k",
        "ing"
      ],
      [
        "Ġt",
        "i"
      ],
      [
        "c",
        "e"
      ],
      [
        "Ġu",
        "s"
      ],
      [
        "e",
        "nd"
      ],
      [
        "m",
        "m"
      ],
      [
        "ac",
        "h"
      ],
      [
        "Ġab",
        "out"
      ],
      [
        "ec",
        "t"
      ],
      [
        "Ġh",
        "ow"
      ],
      [
        "a",
        "d"
      ],
      [
        "Ġ",
        "\""
      ],
      [
        "ou",
        "r"
      ],
      [
        "c",
        "h"
      ],
      [
        "el",
        "l"
      ],
      [
        "ig",
        "ht"
      ],
      [
        "a",
        "ke"
      ],
      [
        "Ġ",
        "Ġ"
      ],
      [
        "in",
        "d"
      ],
      [
        "Ġp",
        "l"
      ],
      [
        "Ġi",
        "f"
      ],
      [
        "ĠTh",
        "e"
      ],
      [
        "mp",
        "le"
      ],
      [
        "f",
        "ul"
      ],
      [
        "l",
        "es"
      ],
      [
        "r",
        "ou"
      ],
      [
        "Ġ",
        "**"
      ],
      [
        "i",
        "d"
      ],
      [
        "Ġ",
        "2"
      ],
      [
        "Ġc",
        "h"
      ],
      [
        "Ġ",
        "C"
      ],
      [
        "al",
        "l"
      ],
      [
        "u",
        "re"
      ],
      [
        "r",
        "y"
      ],
      [
        "Ġco",
        "de"
      ],
      [
        "ĠH",
        "ey"
      ],
      [
        "Ġ",
        "5"
      ],
      [
        "Ġ",
        "Y"
      ],
      [
        "k",
        "s"
      ],
      [
        "Ġu",
        "se"
      ],
      [
        "es",
        "s"
      ],
      [
        "b",
        "er"
      ],
      [
        "Ġa",
        "l"
      ],
      [
        "a",
        "in"
      ],
      [
        "Ġs",
        "h"
      ],
      [
        "th",
        "er"
      ],
      [
        "`",
        "`"
      ],
      [
        "ri",
        "end"
      ],
      [
        "ĠY",
        "ou"
      ],
      [
        "u",
        "r"
      ],
      [
        "Ġf",
        "e"
      ],
      [
        "th",
        "ing"
      ],
      [
        "Ġa",
        "t"
      ],
      [
        "at",
        "e"
      ],
      [
        "Ġg",
        "o"
      ],
      [
        "Ġpro",
        "g"
      ],
      [
        "u",
        "st"
      ],
      [
        "Ġ",
        "qu"
      ],
      [
        "**",
        ":"
      ],
      [
        "Ġ",
        "3"
      ],
      [
        "Ġ",
        "P"
      ],
      [
        "Ġf",
        "riend"
      ],
      [
        "ing",
        "s"
      ],
      [
        "Ġco",
        "mp"
      ],
      [
        "o",
        "re"
      ],
      [
        "ac",
        "e"
      ],
      [
        "v",
        "er"
      ],
      [
        "an",
        "g"
      ],
      [
        "a",
        "b"
      ],
      [
        "ar",
        "t"
      ],
      [
        "f",
        "or"
      ],
      [
        "Ġ",
        "k"
      ],
      [
        "Ġa",
        "ll"
      ],
      [
        "Ġs",
        "p"
      ],
      [
        "Ġb",
        "o"
      ],
      [
        "o",
        "l"
      ],
      [
        "Ġ",
        "j"
      ],
      [
        "Ġb",
        "y"
      ],
      [
        "g",
        "h"
      ],
      [
        "ar",
        "n"
      ],
      [
        "ĠTh",
        "is"
      ],
      [
        "tion",
        "s"
      ],
      [
        "'",
        "t"
      ],
      [
        "u",
        "s"
      ],
      [
        "Ġne",
        "ed"
      ],
      [
        "le",
        "ep"
      ],
      [
        "i",
        "f"
      ],
      [
        "Ġ",
        "r"
      ],
      [
        "Ġw",
        "ay"
      ],
      [
        "Ġn",
        "um"
      ],
      [
        "it",
        "y"
      ],
      [
        "Ġ",
        "B"
      ],
      [
        "Ġmo",
        "re"
      ],
      [
        "ĠWh",
        "at"
      ],
      [
        "Ġprog",
        "ra"
      ],
      [
        "for",
        "m"
      ],
      [
        "i",
        "de"
      ],
      [
        "j",
        "ect"
      ],
      [
        "es",
        "t"
      ],
      [
        "Ġcomp",
        "ut"
      ],
      [
        "a",
        "me"
      ],
      [
        "Ġ",
        "en"
      ],
      [
        "re",
        "s"
      ],
      [
        "Ġ",
        "D"
      ],
      [
        "u",
        "c"
      ],
      [
        "u",
        "g"
      ],
      [
        "Ġc",
        "reat"
      ],
      [
        "ĠI",
        "f"
      ],
      [
        "Ġle",
        "arn"
      ],
      [
        "a",
        "k"
      ],
      [
        "p",
        "l"
      ],
      [
        "Ġd",
        "e"
      ],
      [
        "r",
        "ac"
      ],
      [
        "Ġf",
        "i"
      ],
      [
        "or",
        "t"
      ],
      [
        "Ġg",
        "et"
      ],
      [
        "ag",
        "e"
      ],
      [
        "ou",
        "ld"
      ],
      [
        "Ġth",
        "ings"
      ],
      [
        "Ġw",
        "ant"
      ],
      [
        "Ġb",
        "ut"
      ],
      [
        "Ġwor",
        "k"
      ],
      [
        "in",
        "k"
      ],
      [
        "p",
        "s"
      ],
      [
        "ar",
        "i"
      ],
      [
        "Ġti",
        "me"
      ],
      [
        "Ġm",
        "y"
      ],
      [
        "Ġn",
        "ot"
      ],
      [
        "ĠS",
        "o"
      ],
      [
        "a",
        "v"
      ],
      [
        "a",
        "mple"
      ],
      [
        "n",
        "ow"
      ],
      [
        "Ġs",
        "c"
      ],
      [
        "Ġb",
        "et"
      ],
      [
        "oo",
        "d"
      ],
      [
        "Ġ",
        "F"
      ],
      [
        "ic",
        "h"
      ],
      [
        "Ġsome",
        "thing"
      ],
      [
        "o",
        "p"
      ],
      [
        "Ġin",
        "ter"
      ],
      [
        "it",
        "e"
      ],
      [
        "Ġs",
        "leep"
      ],
      [
        "Ġo",
        "ther"
      ],
      [
        "Ġk",
        "now"
      ],
      [
        "Ġ",
        "R"
      ],
      [
        "ro",
        "m"
      ],
      [
        "Ġwh",
        "ich"
      ],
      [
        "rou",
        "gh"
      ],
      [
        "a",
        "ble"
      ],
      [
        "m",
        "ent"
      ],
      [
        "w",
        "ay"
      ],
      [
        "Ġth",
        "rough"
      ],
      [
        "nd",
        "er"
      ],
      [
        "al",
        "s"
      ],
      [
        "Ġwh",
        "en"
      ],
      [
        "i",
        "l"
      ],
      [
        "m",
        "s"
      ],
      [
        "Ġ",
        "E"
      ],
      [
        "Ġwi",
        "ll"
      ],
      [
        "Ġth",
        "is"
      ],
      [
        "Ġc",
        "a"
      ],
      [
        "Ġh",
        "e"
      ],
      [
        "Ġin",
        "form"
      ],
      [
        "Ġg",
        "i"
      ],
      [
        "Ġex",
        "ample"
      ],
      [
        "Ġqu",
        "es"
      ],
      [
        "Ġ",
        "ke"
      ],
      [
        "Ġm",
        "an"
      ],
      [
        "Ġf",
        "un"
      ],
      [
        "Ġf",
        "rom"
      ],
      [
        "Ġnum",
        "ber"
      ],
      [
        "Ġ",
        "L"
      ],
      [
        "a",
        "nd"
      ],
      [
        "c",
        "t"
      ],
      [
        "o",
        "s"
      ],
      [
        "Ġa",
        "d"
      ],
      [
        "Ġh",
        "ere"
      ],
      [
        "Ġu",
        "p"
      ],
      [
        "Ġpro",
        "ble"
      ],
      [
        "ĠH",
        "ow"
      ],
      [
        "g",
        "et"
      ],
      [
        "s",
        "ist"
      ],
      [
        "Ġ",
        "out"
      ],
      [
        "Ġc",
        "l"
      ],
      [
        "Ġthe",
        "y"
      ],
      [
        "ĠI",
        "n"
      ],
      [
        "ti",
        "v"
      ],
      [
        "Ġwor",
        "ld"
      ],
      [
        "Ġne",
        "w"
      ],
      [
        "res",
        "s"
      ],
      [
        "f",
        "er"
      ],
      [
        "Ġs",
        "m"
      ],
      [
        "Ġthe",
        "m"
      ],
      [
        "Ġm",
        "ach"
      ],
      [
        "Ġv",
        "ari"
      ],
      [
        "mm",
        "ing"
      ],
      [
        "in",
        "es"
      ],
      [
        "Ġwh",
        "o"
      ],
      [
        "ec",
        "h"
      ],
      [
        "Ġre",
        "c"
      ],
      [
        "Ġcomput",
        "er"
      ],
      [
        "Ġa",
        "pp"
      ],
      [
        "at",
        "h"
      ],
      [
        "Ġs",
        "e"
      ],
      [
        "Ġe",
        "v"
      ],
      [
        "Ġj",
        "ust"
      ],
      [
        "Ġbet",
        "ter"
      ],
      [
        "Ġs",
        "i"
      ],
      [
        "Ġf",
        "ind"
      ],
      [
        "le",
        "d"
      ],
      [
        "Ġe",
        "ach"
      ],
      [
        "ĠTh",
        "ey"
      ],
      [
        "Ġcon",
        "t"
      ],
      [
        "Ġinform",
        "ation"
      ],
      [
        "p",
        "e"
      ],
      [
        "v",
        "ing"
      ],
      [
        "Ġ",
        "="
      ],
      [
        "Ġa",
        "c"
      ],
      [
        "Ġo",
        "b"
      ],
      [
        "Ġb",
        "l"
      ],
      [
        "m",
        "es"
      ],
      [
        "y",
        "th"
      ],
      [
        "Ġ",
        "``"
      ],
      [
        "ĠA",
        "I"
      ],
      [
        "Ġ``",
        "`"
      ],
      [
        "g",
        "e"
      ],
      [
        "r",
        "ic"
      ],
      [
        "in",
        "t"
      ],
      [
        "Ġp",
        "e"
      ],
      [
        "Ġp",
        "i"
      ],
      [
        "0",
        "0"
      ],
      [
        "d",
        "s"
      ],
      [
        "Ġ",
        "J"
      ],
      [
        "on",
        "e"
      ],
      [
        "Ġd",
        "if"
      ],
      [
        "el",
        "f"
      ],
      [
        "al",
        "ly"
      ],
      [
        "Ġin",
        "t"
      ],
      [
        "Ġas",
        "sist"
      ],
      [
        "Ġfe",
        "el"
      ],
      [
        "g",
        "y"
      ],
      [
        "u",
        "e"
      ],
      [
        "Ġc",
        "al"
      ],
      [
        "Ġthe",
        "ir"
      ],
      [
        "Ġwh",
        "ere"
      ],
      [
        "a",
        "re"
      ],
      [
        "s",
        "o"
      ],
      [
        "y",
        "s"
      ],
      [
        "Ġ",
        "our"
      ],
      [
        "ou",
        "nd"
      ],
      [
        "Ġs",
        "u"
      ],
      [
        "Ġs",
        "y"
      ],
      [
        "Ġco",
        "mm"
      ],
      [
        "as",
        "s"
      ],
      [
        "Ġprogra",
        "mming"
      ],
      [
        "c",
        "ess"
      ],
      [
        "Ġt",
        "ry"
      ],
      [
        "Ġth",
        "ere"
      ],
      [
        "an",
        "s"
      ],
      [
        "Ġl",
        "oo"
      ],
      [
        "nder",
        "st"
      ],
      [
        "Ġ",
        "4"
      ],
      [
        "Ġli",
        "st"
      ],
      [
        "Ġma",
        "g"
      ],
      [
        "Ġhelp",
        "ful"
      ],
      [
        "ri",
        "b"
      ],
      [
        "Ġdif",
        "fer"
      ],
      [
        "Ġ",
        "ro"
      ],
      [
        "at",
        "es"
      ],
      [
        "Ġf",
        "l"
      ],
      [
        "Ġp",
        "art"
      ],
      [
        "ra",
        "in"
      ],
      [
        "Ġob",
        "ject"
      ],
      [
        "nderst",
        "and"
      ],
      [
        "m",
        "ber"
      ],
      [
        "Ġ",
        "$"
      ],
      [
        "Ġb",
        "ig"
      ],
      [
        "Ġd",
        "es"
      ],
      [
        "Ġwi",
        "d"
      ],
      [
        "Ġha",
        "pp"
      ],
      [
        "ĠH",
        "ere"
      ],
      [
        "pl",
        "ain"
      ],
      [
        "o",
        "id"
      ],
      [
        "v",
        "oid"
      ],
      [
        "Ġt",
        "ech"
      ],
      [
        "Ġb",
        "ed"
      ],
      [
        "Ġm",
        "ight"
      ],
      [
        "on",
        "g"
      ],
      [
        "Ġd",
        "ow"
      ],
      [
        "Ġin",
        "st"
      ],
      [
        "me",
        "mber"
      ],
      [
        "ĠTh",
        "at"
      ],
      [
        "mp",
        "h"
      ],
      [
        "Ġch",
        "ang"
      ],
      [
        "Ġal",
        "so"
      ],
      [
        "Ġev",
        "en"
      ],
      [
        "Ġwid",
        "get"
      ],
      [
        "Ġdow",
        "n"
      ],
      [
        "d",
        "y"
      ],
      [
        "p",
        "er"
      ],
      [
        "u",
        "se"
      ],
      [
        "Ġs",
        "ay"
      ],
      [
        "Ġi",
        "mp"
      ],
      [
        "Ġon",
        "e"
      ],
      [
        "Ġsp",
        "ec"
      ],
      [
        "ak",
        "es"
      ],
      [
        "Ġse",
        "e"
      ],
      [
        "yth",
        "on"
      ],
      [
        "f",
        "t"
      ],
      [
        "Ġ",
        "6"
      ],
      [
        "Ġan",
        "y"
      ],
      [
        "un",
        "ic"
      ],
      [
        "f",
        "e"
      ],
      [
        "i",
        "e"
      ],
      [
        "r",
        "ite"
      ],
      [
        "s",
        "elf"
      ],
      [
        "Ġb",
        "all"
      ],
      [
        "Ġp",
        "ers"
      ],
      [
        "Ġg",
        "ood"
      ],
      [
        "Ġu",
        "nderstand"
      ],
      [
        "Ġpl",
        "ace"
      ],
      [
        "ver",
        "y"
      ],
      [
        "ĠF",
        "or"
      ],
      [
        "ĠR",
        "e"
      ],
      [
        "Ġgi",
        "ve"
      ],
      [
        "Ġke",
        "ep"
      ],
      [
        "Ġproble",
        "m"
      ],
      [
        "c",
        "tion"
      ],
      [
        "m",
        "ag"
      ],
      [
        "n",
        "et"
      ],
      [
        "v",
        "el"
      ],
      [
        "Ġ",
        "O"
      ],
      [
        "Ġt",
        "as"
      ],
      [
        "ti",
        "c"
      ],
      [
        "is",
        "k"
      ],
      [
        "Ġ1",
        "00"
      ],
      [
        "ĠĠ",
        "Ġ"
      ],
      [
        "Ġdiffer",
        "ent"
      ],
      [
        "d",
        "ing"
      ],
      [
        "Ġ",
        "`"
      ],
      [
        "at",
        "ed"
      ],
      [
        "Ġw",
        "ould"
      ],
      [
        "Ġb",
        "ug"
      ],
      [
        "Ġd",
        "ay"
      ],
      [
        "Ġe",
        "very"
      ],
      [
        "Ġco",
        "st"
      ],
      [
        "ut",
        "es"
      ],
      [
        "ig",
        "n"
      ],
      [
        "Ġbo",
        "x"
      ],
      [
        "Ġwidget",
        "s"
      ],
      [
        "i",
        "m"
      ],
      [
        "n",
        "t"
      ],
      [
        "Ġt",
        "ell"
      ],
      [
        "an",
        "ce"
      ],
      [
        "en",
        "e"
      ],
      [
        "Ġd",
        "at"
      ],
      [
        "ĠT",
        "ry"
      ],
      [
        "Ġhelp",
        "s"
      ],
      [
        "Ġus",
        "ed"
      ],
      [
        "rou",
        "nd"
      ],
      [
        "o",
        "m"
      ],
      [
        "o",
        "se"
      ],
      [
        "w",
        "n"
      ],
      [
        "Ġo",
        "p"
      ],
      [
        "Ġp",
        "o"
      ],
      [
        "or",
        "i"
      ],
      [
        "Ġd",
        "on"
      ],
      [
        "Ġg",
        "reat"
      ],
      [
        "ic",
        "al"
      ],
      [
        "Ġre",
        "ad"
      ],
      [
        "Ġle",
        "t"
      ],
      [
        "Ġti",
        "ps"
      ],
      [
        "ab",
        "les"
      ],
      [
        "Ġques",
        "tion"
      ],
      [
        "Ġsm",
        "all"
      ],
      [
        "Ġmach",
        "ines"
      ],
      [
        "Ġpers",
        "on"
      ],
      [
        "'",
        "ll"
      ],
      [
        "a",
        "st"
      ],
      [
        "g",
        "ht"
      ],
      [
        "Ġb",
        "re"
      ],
      [
        "Ġp",
        "er"
      ],
      [
        "ĠTh",
        "ink"
      ],
      [
        "is",
        "e"
      ],
      [
        "Ġpro",
        "cess"
      ],
      [
        "Ġme",
        "ans"
      ],
      [
        "Ġman",
        "y"
      ],
      [
        "mag",
        "ine"
      ],
      [
        "Ġ",
        "("
      ],
      [
        "Ġb",
        "ec"
      ],
      [
        "Ġp",
        "h"
      ],
      [
        "Ġre",
        "s"
      ],
      [
        "ĠWh",
        "en"
      ],
      [
        "Ġr",
        "ight"
      ],
      [
        "way",
        "s"
      ],
      [
        "Ġcomm",
        "unic"
      ],
      [
        "isk",
        "ers"
      ],
      [
        "z",
        "e"
      ],
      [
        "Ġ",
        "M"
      ],
      [
        "at",
        "er"
      ],
      [
        "Ġthe",
        "n"
      ],
      [
        "Ġm",
        "in"
      ],
      [
        "le",
        "ct"
      ],
      [
        "Ġsi",
        "mple"
      ],
      [
        "Ġint",
        "o"
      ],
      [
        "Ġassist",
        "ant"
      ],
      [
        "r",
        "int"
      ],
      [
        "s",
        "w"
      ],
      [
        "Ġs",
        "ame"
      ],
      [
        "Ġb",
        "u"
      ],
      [
        "on",
        "s"
      ],
      [
        "ĠI",
        "magine"
      ],
      [
        "ti",
        "me"
      ],
      [
        "Ġso",
        "l"
      ],
      [
        "Ġan",
        "sw"
      ],
      [
        "ĠB",
        "e"
      ],
      [
        "Ġmin",
        "utes"
      ],
      [
        "f",
        "ore"
      ],
      [
        "g",
        "ul"
      ],
      [
        "o",
        "c"
      ],
      [
        "r",
        "uc"
      ],
      [
        "t",
        "ing"
      ],
      [
        "Ġ",
        "-"
      ],
      [
        "ou",
        "s"
      ],
      [
        "Ġs",
        "ure"
      ],
      [
        "en",
        "ce"
      ],
      [
        "ar",
        "d"
      ],
      [
        "ic",
        "e"
      ],
      [
        "ĠC",
        "o"
      ],
      [
        "Ġfun",
        "ction"
      ],
      [
        ".",
        "\""
      ],
      [
        "e",
        "m"
      ],
      [
        "g",
        "an"
      ],
      [
        "i",
        "es"
      ],
      [
        "i",
        "al"
      ],
      [
        "Ġa",
        "ir"
      ],
      [
        "Ġc",
        "at"
      ],
      [
        "Ġpro",
        "v"
      ],
      [
        "Ġpro",
        "ject"
      ],
      [
        "ĠA",
        "nd"
      ],
      [
        "ĠW",
        "ell"
      ],
      [
        "Ġst",
        "ep"
      ],
      [
        "ĠC",
        "an"
      ],
      [
        "Ġcreat",
        "e"
      ],
      [
        "ric",
        "k"
      ],
      [
        "Ġop",
        "en"
      ],
      [
        "b",
        "ers"
      ],
      [
        "c",
        "ul"
      ],
      [
        "c",
        "rib"
      ],
      [
        "d",
        "uc"
      ],
      [
        "i",
        "ti"
      ],
      [
        "k",
        "es"
      ],
      [
        "Ġt",
        "w"
      ],
      [
        "Ġth",
        "an"
      ],
      [
        "Ġw",
        "as"
      ],
      [
        "Ġs",
        "et"
      ],
      [
        "Ġp",
        "ound"
      ],
      [
        "Ġh",
        "our"
      ],
      [
        "Ġu",
        "n"
      ],
      [
        "um",
        "in"
      ],
      [
        "Ġus",
        "ing"
      ],
      [
        "Ġal",
        "ways"
      ],
      [
        "Ġgo",
        "als"
      ],
      [
        "Ġfriend",
        "ly"
      ],
      [
        "ang",
        "u"
      ],
      [
        "Ġbo",
        "dy"
      ],
      [
        "if",
        "ic"
      ],
      [
        "Ġrec",
        "i"
      ],
      [
        "Ġimp",
        "ort"
      ],
      [
        "a",
        "use"
      ],
      [
        "c",
        "o"
      ],
      [
        "p",
        "ect"
      ],
      [
        "u",
        "ch"
      ],
      [
        "Ġth",
        "ink"
      ],
      [
        "Ġc",
        "ake"
      ],
      [
        "Ġs",
        "k"
      ],
      [
        "Ġm",
        "uch"
      ],
      [
        "on",
        "y"
      ],
      [
        "Ġl",
        "angu"
      ],
      [
        "Ġe",
        "as"
      ],
      [
        "ac",
        "k"
      ],
      [
        "ll",
        "umin"
      ],
      [
        "Ġmo",
        "ve"
      ],
      [
        "Ġv",
        "al"
      ],
      [
        "ol",
        "o"
      ],
      [
        "op",
        "le"
      ],
      [
        "il",
        "ity"
      ],
      [
        "Ġsy",
        "mph"
      ],
      [
        "crib",
        "e"
      ],
      [
        "Ġreci",
        "pe"
      ],
      [
        "Ġimport",
        "ant"
      ],
      [
        "Ġsymph",
        "ony"
      ],
      [
        "i",
        "er"
      ],
      [
        "n",
        "g"
      ],
      [
        "t",
        "t"
      ],
      [
        "Ġt",
        "y"
      ],
      [
        "Ġt",
        "al"
      ],
      [
        "Ġa",
        "way"
      ],
      [
        "ĠI",
        "llumin"
      ],
      [
        "ac",
        "t"
      ],
      [
        "Ġpro",
        "duc"
      ],
      [
        "Ġma",
        "kes"
      ],
      [
        "Ġst",
        "ore"
      ],
      [
        "ĠP",
        "at"
      ],
      [
        "ĠB",
        "ut"
      ],
      [
        "ĠL",
        "et"
      ],
      [
        "Ġapp",
        "les"
      ],
      [
        "Ġfl",
        "ow"
      ],
      [
        "Ġspec",
        "ific"
      ],
      [
        "Ġbec",
        "ause"
      ],
      [
        "Ġtw",
        "o"
      ],
      [
        "ĠIllumin",
        "ates"
      ],
      [
        "Ġt",
        "r"
      ],
      [
        "Ġw",
        "ater"
      ],
      [
        "Ġd",
        "i"
      ],
      [
        "Ġl",
        "ong"
      ],
      [
        "Ġn",
        "o"
      ],
      [
        "Ġso",
        "ft"
      ],
      [
        "Ġst",
        "art"
      ],
      [
        "Ġcon",
        "f"
      ],
      [
        "Ġcomput",
        "ers"
      ],
      [
        "Ġques",
        "tions"
      ],
      [
        "Ġvari",
        "ables"
      ],
      [
        "Ġcont",
        "ro"
      ],
      [
        "Ġpe",
        "ople"
      ],
      [
        "ĠJ",
        "ay"
      ],
      [
        "Ġprov",
        "ide"
      ],
      [
        "olo",
        "gy"
      ],
      [
        "e",
        "ad"
      ],
      [
        "v",
        "es"
      ],
      [
        "Ġ",
        "G"
      ],
      [
        "Ġt",
        "ra"
      ],
      [
        "Ġt",
        "ake"
      ],
      [
        "re",
        "d"
      ],
      [
        "Ġo",
        "wn"
      ],
      [
        "Ġm",
        "ind"
      ],
      [
        "Ġm",
        "ess"
      ],
      [
        "Ġe",
        "lect"
      ],
      [
        "Ġor",
        "gan"
      ],
      [
        "Ġst",
        "ay"
      ],
      [
        "Ġst",
        "ress"
      ],
      [
        "reat",
        "e"
      ],
      [
        "Ġsh",
        "ort"
      ],
      [
        "Ġprogra",
        "m"
      ],
      [
        "Ġfi",
        "le"
      ],
      [
        "Ġsc",
        "ene"
      ],
      [
        "ĠE",
        "x"
      ],
      [
        "Ġad",
        "d"
      ],
      [
        "Ġansw",
        "er"
      ],
      [
        "Ġcontro",
        "l"
      ],
      [
        "'",
        "d"
      ],
      [
        "a",
        "m"
      ],
      [
        "n",
        "ology"
      ],
      [
        "Ġt",
        "e"
      ],
      [
        "Ġo",
        "ver"
      ],
      [
        "Ġb",
        "at"
      ],
      [
        "Ġb",
        "oo"
      ],
      [
        "or",
        "y"
      ],
      [
        "ar",
        "y"
      ],
      [
        "ĠA",
        "h"
      ],
      [
        "ur",
        "n"
      ],
      [
        "Ġgo",
        "ing"
      ],
      [
        "Ġlearn",
        "ing"
      ],
      [
        "Ġvari",
        "able"
      ],
      [
        "Ġpe",
        "ace"
      ],
      [
        "Ġpi",
        "ec"
      ],
      [
        "Ġro",
        "c"
      ],
      [
        "Ġhapp",
        "y"
      ],
      [
        "ĠRe",
        "member"
      ],
      [
        "Ġtas",
        "ks"
      ],
      [
        "ĠCan",
        "o"
      ],
      [
        "ĠPat",
        "rick"
      ],
      [
        "d",
        "ay"
      ],
      [
        "m",
        "y"
      ],
      [
        "Ġa",
        "r"
      ],
      [
        "Ġc",
        "ar"
      ],
      [
        "Ġb",
        "as"
      ],
      [
        "Ġm",
        "ist"
      ],
      [
        "Ġp",
        "rint"
      ],
      [
        "le",
        "ar"
      ],
      [
        "Ġl",
        "ot"
      ],
      [
        "ti",
        "ce"
      ],
      [
        "Ġg",
        "l"
      ],
      [
        "Ġre",
        "l"
      ],
      [
        "Ġbe",
        "fore"
      ],
      [
        "Ġas",
        "k"
      ],
      [
        "Ġex",
        "plain"
      ],
      [
        "ch",
        "ie"
      ],
      [
        "Ġpl",
        "ay"
      ],
      [
        "ĠP",
        "ython"
      ],
      [
        "Ġnum",
        "bers"
      ],
      [
        "Ġcreat",
        "ed"
      ],
      [
        "Ġfi",
        "x"
      ],
      [
        "Ġcl",
        "ass"
      ],
      [
        "Ġcal",
        "cul"
      ],
      [
        "Ġdat",
        "a"
      ],
      [
        "Ġsol",
        "ve"
      ],
      [
        "Ġlangu",
        "age"
      ],
      [
        "c",
        "ise"
      ],
      [
        "i",
        "ve"
      ],
      [
        "u",
        "es"
      ],
      [
        "z",
        "z"
      ],
      [
        "Ġ",
        "'"
      ],
      [
        "Ġt",
        "akes"
      ],
      [
        "Ġa",
        "chie"
      ],
      [
        "Ġto",
        "o"
      ],
      [
        "Ġto",
        "t"
      ],
      [
        "Ġb",
        "it"
      ],
      [
        "Ġli",
        "tt"
      ],
      [
        "ow",
        "s"
      ],
      [
        "is",
        "ion"
      ],
      [
        "Ġma",
        "king"
      ],
      [
        "Ġha",
        "s"
      ],
      [
        "Ġbe",
        "ing"
      ],
      [
        "ĠW",
        "e"
      ],
      [
        "Ġwor",
        "king"
      ],
      [
        "Ġwor",
        "ks"
      ],
      [
        "Ġmag",
        "net"
      ],
      [
        "gul",
        "ar"
      ],
      [
        "Ġorgan",
        "i"
      ],
      [
        "Ġpeace",
        "ful"
      ],
      [
        "Ġlitt",
        "le"
      ],
      [
        "'",
        "ve"
      ],
      [
        "b",
        "r"
      ],
      [
        "i",
        "ent"
      ],
      [
        "s",
        "ide"
      ],
      [
        "Ġa",
        "void"
      ],
      [
        "er",
        "gy"
      ],
      [
        "Ġth",
        "ose"
      ],
      [
        "Ġs",
        "un"
      ],
      [
        "Ġto",
        "day"
      ],
      [
        "Ġb",
        "est"
      ],
      [
        "Ġb",
        "rain"
      ],
      [
        "Ġp",
        "rac"
      ],
      [
        "Ġh",
        "o"
      ],
      [
        "Ġd",
        "ec"
      ],
      [
        "Ġg",
        "ro"
      ],
      [
        "ic",
        "k"
      ],
      [
        "ic",
        "s"
      ],
      [
        "Ġma",
        "de"
      ],
      [
        "ĠW",
        "rite"
      ],
      [
        "Ġmo",
        "tiv"
      ],
      [
        "ant",
        "s"
      ],
      [
        "ur",
        "s"
      ],
      [
        "Ġen",
        "ergy"
      ],
      [
        "Ġinter",
        "est"
      ],
      [
        "Ġad",
        "v"
      ],
      [
        "Ġmach",
        "ine"
      ],
      [
        "Ġcal",
        "led"
      ],
      [
        "Ġbre",
        "ak"
      ],
      [
        "Ġcommunic",
        "ation"
      ],
      [
        "Ġhour",
        "s"
      ],
      [
        "Ġroc",
        "ks"
      ],
      [
        "u",
        "ll"
      ],
      [
        "w",
        "e"
      ],
      [
        "Ġt",
        "in"
      ],
      [
        "Ġc",
        "ould"
      ],
      [
        "ar",
        "th"
      ],
      [
        "Ġco",
        "ol"
      ],
      [
        "Ġyour",
        "self"
      ],
      [
        "Ġha",
        "ving"
      ],
      [
        "ers",
        "ion"
      ],
      [
        "Ġsh",
        "are"
      ],
      [
        "Ġfe",
        "w"
      ],
      [
        "Ġhe",
        "av"
      ],
      [
        "Ġloo",
        "king"
      ],
      [
        "Ġdes",
        "cribe"
      ],
      [
        "Ġinst",
        "ead"
      ],
      [
        "ng",
        "th"
      ],
      [
        "ĠEx",
        "plain"
      ],
      [
        "Ġtot",
        "al"
      ],
      [
        "Ġtin",
        "y"
      ],
      [
        "a",
        "king"
      ],
      [
        "a",
        "ps"
      ],
      [
        "c",
        "ou"
      ],
      [
        "f",
        "fe"
      ],
      [
        "i",
        "le"
      ],
      [
        "i",
        "ld"
      ],
      [
        "o",
        "g"
      ],
      [
        "o",
        "nd"
      ],
      [
        "p",
        "ython"
      ],
      [
        "t",
        "s"
      ],
      [
        "x",
        "t"
      ],
      [
        "Ġt",
        "rain"
      ],
      [
        "Ġc",
        "lear"
      ],
      [
        "Ġw",
        "rite"
      ],
      [
        "Ġto",
        "y"
      ],
      [
        "Ġp",
        "os"
      ],
      [
        "or",
        "s"
      ],
      [
        "Ġd",
        "ist"
      ],
      [
        "Ġe",
        "at"
      ],
      [
        "Ġre",
        "member"
      ],
      [
        "Ġdo",
        "es"
      ],
      [
        "ir",
        "t"
      ],
      [
        "ation",
        "s"
      ],
      [
        "ĠWh",
        "iskers"
      ],
      [
        "Ġsome",
        "one"
      ],
      [
        "Ġpl",
        "an"
      ],
      [
        "Ġfe",
        "ath"
      ],
      [
        "ab",
        "ility"
      ],
      [
        "Ġk",
        "ind"
      ],
      [
        "ĠD",
        "o"
      ],
      [
        "rac",
        "k"
      ],
      [
        "Ġca",
        "us"
      ],
      [
        "Ġproble",
        "ms"
      ],
      [
        "tiv",
        "ity"
      ],
      [
        "Ġhapp",
        "en"
      ],
      [
        "Ġtech",
        "y"
      ],
      [
        "Ġbed",
        "time"
      ],
      [
        "Ġchang",
        "e"
      ],
      [
        "Ġcost",
        "s"
      ],
      [
        "Ġsmall",
        "er"
      ],
      [
        "iti",
        "es"
      ],
      [
        "Ġtra",
        "vel"
      ],
      [
        "Ġdec",
        "ision"
      ],
      [
        "urs",
        "ion"
      ],
      [
        "1",
        "0"
      ],
      [
        ":",
        "**"
      ],
      [
        "b",
        "ability"
      ],
      [
        "l",
        "ight"
      ],
      [
        "o",
        "ll"
      ],
      [
        "t",
        "ain"
      ],
      [
        "Ġa",
        "m"
      ],
      [
        "Ġc",
        "all"
      ],
      [
        "re",
        "ct"
      ],
      [
        "Ġs",
        "ti"
      ],
      [
        "Ġf",
        "ood"
      ],
      [
        "Ġp",
        "ass"
      ],
      [
        "al",
        "th"
      ],
      [
        "Ġin",
        "c"
      ],
      [
        "ar",
        "g"
      ],
      [
        "ti",
        "f"
      ],
      [
        "ti",
        "ve"
      ],
      [
        "ti",
        "mes"
      ],
      [
        "Ġli",
        "ght"
      ],
      [
        "Ġbe",
        "en"
      ],
      [
        "ir",
        "st"
      ],
      [
        "ĠD",
        "on"
      ],
      [
        "Ġman",
        "age"
      ],
      [
        "Ġsu",
        "per"
      ],
      [
        "Ġobject",
        "s"
      ],
      [
        "Ġinst",
        "ruc"
      ],
      [
        "Ġbu",
        "ild"
      ],
      [
        "Ġtal",
        "k"
      ],
      [
        "Ġgl",
        "ad"
      ],
      [
        "Ġfeath",
        "ers"
      ],
      [
        "Ġsti",
        "ll"
      ],
      [
        "Ġinstruc",
        "tions"
      ],
      [
        "\"",
        ","
      ],
      [
        "a",
        "se"
      ],
      [
        "g",
        "ori"
      ],
      [
        "l",
        "ic"
      ],
      [
        "t",
        "ure"
      ],
      [
        "Ġ",
        "7"
      ],
      [
        "Ġ",
        "er"
      ],
      [
        "Ġt",
        "rack"
      ],
      [
        "Ġa",
        "f"
      ],
      [
        "Ġa",
        "round"
      ],
      [
        "ou",
        "ght"
      ],
      [
        "Ġth",
        "ing"
      ],
      [
        "at",
        "ure"
      ],
      [
        "re",
        "en"
      ],
      [
        "Ġo",
        "th"
      ],
      [
        "Ġto",
        "ol"
      ],
      [
        "Ġb",
        "r"
      ],
      [
        "Ġf",
        "oll"
      ],
      [
        "ĠN",
        "ow"
      ],
      [
        "ĠT",
        "o"
      ],
      [
        "Ġn",
        "ame"
      ],
      [
        "Ġre",
        "ally"
      ],
      [
        "ĠA",
        "l"
      ],
      [
        "ĠA",
        "s"
      ],
      [
        "ent",
        "s"
      ],
      [
        "Ġst",
        "ate"
      ],
      [
        "Ġmo",
        "st"
      ],
      [
        "ĠP",
        "ro"
      ],
      [
        "Ġsp",
        "e"
      ],
      [
        "Ġde",
        "ep"
      ],
      [
        "av",
        "es"
      ],
      [
        "Ġinter",
        "net"
      ],
      [
        "Ġwho",
        "le"
      ],
      [
        "Ġbl",
        "ue"
      ],
      [
        "ĠJ",
        "ust"
      ],
      [
        "Ġpart",
        "s"
      ],
      [
        "Ġachie",
        "ve"
      ],
      [
        "Ġgro",
        "w"
      ],
      [
        "ffe",
        "ine"
      ],
      [
        "Ġer",
        "r"
      ],
      [
        "Ġoth",
        "ers"
      ],
      [
        "a",
        "x"
      ],
      [
        "l",
        "ine"
      ],
      [
        "n",
        "e"
      ],
      [
        "o",
        "y"
      ],
      [
        "w",
        "are"
      ],
      [
        "Ġ",
        "0"
      ],
      [
        "Ġ",
        "["
      ],
      [
        "Ġth",
        "ought"
      ],
      [
        "Ġc",
        "our"
      ],
      [
        "Ġw",
        "r"
      ],
      [
        "re",
        "e"
      ],
      [
        "Ġto",
        "w"
      ],
      [
        "Ġto",
        "ys"
      ],
      [
        "es",
        "e"
      ],
      [
        "Ġm",
        "i"
      ],
      [
        "Ġf",
        "rac"
      ],
      [
        "Ġp",
        "ut"
      ],
      [
        "Ġh",
        "is"
      ],
      [
        "ke",
        "d"
      ],
      [
        "Ġli",
        "fe"
      ],
      [
        "Ġit",
        "s"
      ],
      [
        "ĠTh",
        "ese"
      ],
      [
        "it",
        "s"
      ],
      [
        "ĠA",
        "void"
      ],
      [
        "Ġti",
        "mes"
      ],
      [
        "Ġat",
        "t"
      ],
      [
        "Ġprog",
        "ress"
      ],
      [
        "Ġde",
        "f"
      ],
      [
        "Ġdes",
        "ign"
      ],
      [
        "Ġtech",
        "nology"
      ],
      [
        "Ġchang",
        "es"
      ],
      [
        "Ġ6",
        "0"
      ],
      [
        "oc",
        "k"
      ],
      [
        "Ġty",
        "p"
      ],
      [
        "Ġsoft",
        "ware"
      ],
      [
        "Ġboo",
        "ks"
      ],
      [
        "Ġpiec",
        "e"
      ],
      [
        "Ġmagnet",
        "s"
      ],
      [
        "Ġho",
        "ld"
      ],
      [
        "Ġadv",
        "ice"
      ],
      [
        "gori",
        "th"
      ],
      [
        "(",
        ")"
      ],
      [
        "a",
        "ve"
      ],
      [
        "a",
        "il"
      ],
      [
        "g",
        "ing"
      ],
      [
        "i",
        "p"
      ],
      [
        "i",
        "ll"
      ],
      [
        "i",
        "tion"
      ],
      [
        "i",
        "ble"
      ],
      [
        "l",
        "ist"
      ],
      [
        "Ġ",
        "+"
      ],
      [
        "Ġ",
        "el"
      ],
      [
        "ou",
        "gh"
      ],
      [
        "Ġm",
        "ath"
      ],
      [
        "Ġf",
        "all"
      ],
      [
        "Ġh",
        "ard"
      ],
      [
        "or",
        "rect"
      ],
      [
        "Ġd",
        "is"
      ],
      [
        "Ġof",
        "f"
      ],
      [
        "th",
        "o"
      ],
      [
        "el",
        "y"
      ],
      [
        "ĠT",
        "i"
      ],
      [
        "Ġwh",
        "iskers"
      ],
      [
        "Ġit",
        "self"
      ],
      [
        "Ġco",
        "nd"
      ],
      [
        "Ġco",
        "mple"
      ],
      [
        "Ġco",
        "ding"
      ],
      [
        "ĠU",
        "se"
      ],
      [
        "it",
        "ing"
      ],
      [
        "Ġbe",
        "h"
      ],
      [
        "Ġan",
        "im"
      ],
      [
        "Ġle",
        "aves"
      ],
      [
        "ell",
        "o"
      ],
      [
        "id",
        "es"
      ],
      [
        "Ġch",
        "at"
      ],
      [
        "Ġgo",
        "al"
      ],
      [
        "Ġall",
        "ows"
      ],
      [
        "Ġbet",
        "we"
      ],
      [
        "Ġhe",
        "alth"
      ],
      [
        "Ġke",
        "y"
      ],
      [
        "Ġsi",
        "mp"
      ],
      [
        "ys",
        "ical"
      ],
      [
        "Ġspec",
        "ial"
      ],
      [
        "Ġtas",
        "k"
      ],
      [
        "Ġsk",
        "y"
      ],
      [
        "Ġconf",
        "id"
      ],
      [
        "Ġmist",
        "akes"
      ],
      [
        "Ġfoll",
        "ow"
      ],
      [
        "Ġstate",
        "ment"
      ],
      [
        "Ġel",
        "se"
      ],
      [
        "Ġbetwe",
        "en"
      ],
      [
        "K",
        "e"
      ],
      [
        "a",
        "p"
      ],
      [
        "b",
        "s"
      ],
      [
        "c",
        "es"
      ],
      [
        "i",
        "et"
      ],
      [
        "k",
        "ay"
      ],
      [
        "Ġ",
        "*"
      ],
      [
        "Ġ",
        "V"
      ],
      [
        "Ġ",
        "Ke"
      ],
      [
        "Ġt",
        "urn"
      ],
      [
        "in",
        "king"
      ],
      [
        "Ġs",
        "ign"
      ],
      [
        "Ġto",
        "ge"
      ],
      [
        "Ġm",
        "us"
      ],
      [
        "Ġin",
        "side"
      ],
      [
        "Ġg",
        "ame"
      ],
      [
        "ul",
        "t"
      ],
      [
        "Ġas",
        "ked"
      ],
      [
        "Ġdo",
        "ing"
      ],
      [
        "Ġle",
        "ngth"
      ],
      [
        "ĠS",
        "t"
      ],
      [
        "ag",
        "es"
      ],
      [
        "Ġv",
        "ersion"
      ],
      [
        "ĠC",
        "reate"
      ],
      [
        "Ġal",
        "gorith"
      ],
      [
        "Ġsh",
        "ould"
      ],
      [
        "Ġen",
        "g"
      ],
      [
        "Ġfi",
        "el"
      ],
      [
        "Ġpi",
        "zz"
      ],
      [
        "Ġsu",
        "pp"
      ],
      [
        "Ġloo",
        "k"
      ],
      [
        "Ġlist",
        "en"
      ],
      [
        "Ġany",
        "thing"
      ],
      [
        "Ġdat",
        "ab"
      ],
      [
        "ĠM",
        "ake"
      ],
      [
        "Ġval",
        "ue"
      ],
      [
        "Ġsun",
        "light"
      ],
      [
        "Ġprac",
        "tice"
      ],
      [
        "Ġmotiv",
        "ated"
      ],
      [
        "Ġheav",
        "ier"
      ],
      [
        "ĠKe",
        "ep"
      ],
      [
        "Ġtoge",
        "ther"
      ],
      [
        "Ġpizz",
        "a"
      ],
      [
        "a",
        "pp"
      ],
      [
        "d",
        "en"
      ],
      [
        "e",
        "ms"
      ],
      [
        "f",
        "ere"
      ],
      [
        "g",
        "ain"
      ],
      [
        "i",
        "ly"
      ],
      [
        "l",
        "ing"
      ],
      [
        "n",
        "i"
      ],
      [
        "n",
        "th"
      ],
      [
        "o",
        "ther"
      ],
      [
        "r",
        "ons"
      ],
      [
        "v",
        "ir"
      ],
      [
        "Ġa",
        "gain"
      ],
      [
        "er",
        "y"
      ],
      [
        "at",
        "ive"
      ],
      [
        "Ġs",
        "ides"
      ],
      [
        "Ġo",
        "kay"
      ],
      [
        "Ġf",
        "act"
      ],
      [
        "Ġp",
        "ow"
      ],
      [
        "on",
        "ment"
      ],
      [
        "Ġd",
        "ig"
      ],
      [
        "Ġd",
        "irt"
      ],
      [
        "Ġg",
        "ent"
      ],
      [
        "Ġco",
        "l"
      ],
      [
        "is",
        "h"
      ],
      [
        "ĠH",
        "e"
      ],
      [
        "Ġon",
        "line"
      ],
      [
        "Ġst",
        "r"
      ],
      [
        "ra",
        "v"
      ],
      [
        "Ġas",
        "king"
      ],
      [
        "Ġas",
        "leep"
      ],
      [
        "Ġwor",
        "ds"
      ],
      [
        "ĠS",
        "ure"
      ],
      [
        "Ġme",
        "tho"
      ],
      [
        "ad",
        "s"
      ],
      [
        "Ġpl",
        "ants"
      ],
      [
        "Ġat",
        "e"
      ],
      [
        "ore",
        "m"
      ],
      [
        "Ġen",
        "j"
      ],
      [
        "Ġcreat",
        "ing"
      ],
      [
        "op",
        "e"
      ],
      [
        "Ġinter",
        "fere"
      ],
      [
        "Ġrec",
        "ursion"
      ],
      [
        "Ġcont",
        "ain"
      ],
      [
        "Ġtry",
        "ing"
      ],
      [
        "Ġsay",
        "ing"
      ],
      [
        "ĠRe",
        "gular"
      ],
      [
        "vel",
        "op"
      ],
      [
        "Ġtell",
        "s"
      ],
      [
        "Ġper",
        "form"
      ],
      [
        "Ġval",
        "ues"
      ],
      [
        "Ġmess",
        "age"
      ],
      [
        "Ġorgani",
        "z"
      ],
      [
        "Ġdist",
        "ance"
      ],
      [
        "Ġdesign",
        "ed"
      ],
      [
        "nth",
        "es"
      ],
      [
        "vir",
        "onment"
      ],
      [
        "b",
        "ug"
      ],
      [
        "e",
        "ar"
      ],
      [
        "m",
        "it"
      ],
      [
        "n",
        "ame"
      ],
      [
        "u",
        "al"
      ],
      [
        "y",
        "nthes"
      ],
      [
        "Ġ",
        "8"
      ],
      [
        "Ġt",
        "er"
      ],
      [
        "ou",
        "nt"
      ],
      [
        "Ġth",
        "inking"
      ],
      [
        "Ġc",
        "u"
      ],
      [
        "at",
        "ing"
      ],
      [
        "at",
        "ter"
      ],
      [
        "Ġthe",
        "orem"
      ],
      [
        "Ġi",
        "de"
      ],
      [
        "Ġb",
        "reat"
      ],
      [
        "Ġp",
        "re"
      ],
      [
        "Ġh",
        "um"
      ],
      [
        "Ġd",
        "one"
      ],
      [
        "ar",
        "ge"
      ],
      [
        "Ġg",
        "u"
      ],
      [
        "Ġg",
        "round"
      ],
      [
        "Ġe",
        "ar"
      ],
      [
        "ĠTh",
        "ere"
      ],
      [
        "it",
        "al"
      ],
      [
        "Ġpro",
        "bability"
      ],
      [
        "ut",
        "e"
      ],
      [
        "Ġst",
        "ory"
      ],
      [
        "Ġle",
        "ft"
      ],
      [
        "ot",
        "os"
      ],
      [
        "Ġex",
        "per"
      ],
      [
        "Ġsh",
        "ow"
      ],
      [
        "ort",
        "s"
      ],
      [
        "ĠE",
        "arth"
      ],
      [
        "Ġca",
        "ffeine"
      ],
      [
        "ĠL",
        "ist"
      ],
      [
        "Ġloo",
        "p"
      ],
      [
        "im",
        "it"
      ],
      [
        "Ġpo",
        "int"
      ],
      [
        "Ġread",
        "ing"
      ],
      [
        "Ġcommunic",
        "ate"
      ],
      [
        "pect",
        "ful"
      ],
      [
        "Ġeas",
        "y"
      ],
      [
        "Ġelect",
        "ric"
      ],
      [
        "Ġcalcul",
        "us"
      ],
      [
        "Ġdecision",
        "s"
      ],
      [
        "Ġthought",
        "s"
      ],
      [
        "Ġmi",
        "les"
      ],
      [
        "Ġatt",
        "rib"
      ],
      [
        "Ġanim",
        "als"
      ],
      [
        "Ġconfid",
        "ent"
      ],
      [
        "Ġpow",
        "er"
      ],
      [
        "Ġdig",
        "ital"
      ],
      [
        "Ġgent",
        "le"
      ],
      [
        "Ġenj",
        "oy"
      ],
      [
        "ynthes",
        "is"
      ],
      [
        "otos",
        "ynthesis"
      ],
      [
        "C",
        "reate"
      ],
      [
        "g",
        "in"
      ],
      [
        "i",
        "ence"
      ],
      [
        "n",
        "er"
      ],
      [
        "o",
        "ve"
      ],
      [
        "o",
        "nder"
      ],
      [
        "s",
        "s"
      ],
      [
        "s",
        "es"
      ],
      [
        "Ġt",
        "re"
      ],
      [
        "er",
        "cise"
      ],
      [
        "er",
        "tain"
      ],
      [
        "Ġw",
        "onder"
      ],
      [
        "Ġs",
        "er"
      ],
      [
        "Ġs",
        "ur"
      ],
      [
        "Ġs",
        "ound"
      ],
      [
        "Ġf",
        "ig"
      ],
      [
        "Ġf",
        "ast"
      ],
      [
        "Ġp",
        "red"
      ],
      [
        "Ġl",
        "a"
      ],
      [
        "Ġl",
        "ine"
      ],
      [
        "Ġin",
        "v"
      ],
      [
        "ar",
        "k"
      ],
      [
        "Ġli",
        "br"
      ],
      [
        "Ġn",
        "or"
      ],
      [
        "Ġe",
        "qu"
      ],
      [
        "Ġbe",
        "gin"
      ],
      [
        "ĠH",
        "ello"
      ],
      [
        "Ġon",
        "ly"
      ],
      [
        "Ġex",
        "p"
      ],
      [
        "Ġv",
        "ery"
      ],
      [
        "Ġwe",
        "e"
      ],
      [
        "Ġme",
        "an"
      ],
      [
        "Ġcon",
        "cise"
      ],
      [
        "ĠĠ",
        "ĠĠ"
      ],
      [
        "Ġuse",
        "ful"
      ],
      [
        "Ġqu",
        "iet"
      ],
      [
        "us",
        "h"
      ],
      [
        "Ġr",
        "un"
      ],
      [
        "ug",
        "s"
      ],
      [
        "Ġde",
        "velop"
      ],
      [
        "Ġde",
        "bug"
      ],
      [
        "ĠSo",
        "me"
      ],
      [
        "av",
        "or"
      ],
      [
        "Ġca",
        "se"
      ],
      [
        "Ġkeep",
        "s"
      ],
      [
        "Ġph",
        "ysical"
      ],
      [
        "Ġstep",
        "s"
      ],
      [
        "Ġeas",
        "ier"
      ],
      [
        "Ġty",
        "pe"
      ],
      [
        "cou",
        "ra"
      ],
      [
        "Ġbuild",
        "ing"
      ],
      [
        "Ġfrac",
        "tion"
      ],
      [
        "Ġcomple",
        "x"
      ],
      [
        "Ġmus",
        "ic"
      ],
      [
        "Ġalgorith",
        "m"
      ],
      [
        "rav",
        "ity"
      ],
      [
        "Ġbreat",
        "h"
      ],
      [
        "Ġpred",
        "ic"
      ],
      [
        "ĠĠĠĠ",
        "ĠĠĠ"
      ],
      [
        "\"",
        "."
      ],
      [
        "'",
        ","
      ],
      [
        "P",
        "I"
      ],
      [
        "b",
        "e"
      ],
      [
        "b",
        "y"
      ],
      [
        "b",
        "ra"
      ],
      [
        "e",
        "x"
      ],
      [
        "f",
        "f"
      ],
      [
        "g",
        "er"
      ],
      [
        "o",
        "x"
      ],
      [
        "p",
        "h"
      ],
      [
        "p",
        "ut"
      ],
      [
        "v",
        "ers"
      ],
      [
        "Ġ",
        "/"
      ],
      [
        "Ġ",
        "x"
      ],
      [
        "Ġt",
        "ri"
      ],
      [
        "in",
        "ce"
      ],
      [
        "ou",
        "ble"
      ],
      [
        "Ġw",
        "ere"
      ],
      [
        "re",
        "t"
      ],
      [
        "Ġs",
        "ec"
      ],
      [
        "Ġthe",
        "se"
      ],
      [
        "Ġb",
        "el"
      ],
      [
        "Ġm",
        "is"
      ],
      [
        "an",
        "ch"
      ],
      [
        "Ġf",
        "ar"
      ],
      [
        "Ġf",
        "avor"
      ],
      [
        "or",
        "n"
      ],
      [
        "ar",
        "m"
      ],
      [
        "ar",
        "ds"
      ],
      [
        "ĠT",
        "ech"
      ],
      [
        "Ġco",
        "ll"
      ],
      [
        "ec",
        "tiv"
      ],
      [
        "ĠA",
        "PI"
      ],
      [
        "Ġfor",
        "ce"
      ],
      [
        "Ġne",
        "ur"
      ],
      [
        "ation",
        "al"
      ],
      [
        "ot",
        "s"
      ],
      [
        "Ġex",
        "pl"
      ],
      [
        "Ġ1",
        "0"
      ],
      [
        "Ġcon",
        "c"
      ],
      [
        "Ġcon",
        "s"
      ],
      [
        "Ġcon",
        "vers"
      ],
      [
        "Ġch",
        "ec"
      ],
      [
        "Ġfriend",
        "s"
      ],
      [
        "Ġneed",
        "ed"
      ],
      [
        "Ġget",
        "ting"
      ],
      [
        "Ġsc",
        "reen"
      ],
      [
        "Ġev",
        "ent"
      ],
      [
        "Ġac",
        "tivity"
      ],
      [
        "Ġbl",
        "ock"
      ],
      [
        "ge",
        "bra"
      ],
      [
        "Ġfeel",
        "ings"
      ],
      [
        "Ġsu",
        "ch"
      ],
      [
        "Ġevery",
        "thing"
      ],
      [
        "Ġbox",
        "es"
      ],
      [
        "Ġres",
        "p"
      ],
      [
        "ĠCo",
        "de"
      ],
      [
        "Ġcat",
        "s"
      ],
      [
        "iti",
        "ve"
      ],
      [
        "Ġproduc",
        "tive"
      ],
      [
        "Ġelect",
        "rons"
      ],
      [
        "Ġbas",
        "ic"
      ],
      [
        "Ġaf",
        "ter"
      ],
      [
        "Ġbr",
        "anch"
      ],
      [
        "Ġspe",
        "ed"
      ],
      [
        "Ġtow",
        "ards"
      ],
      [
        "ail",
        "s"
      ],
      [
        "Ġsimp",
        "ly"
      ],
      [
        "Ġmetho",
        "ds"
      ],
      [
        "Ġwonder",
        "ing"
      ],
      [
        "Ġlibr",
        "ary"
      ],
      [
        "ĠSome",
        "times"
      ],
      [
        "Ġfavor",
        "ite"
      ],
      [
        "S",
        "t"
      ],
      [
        "`",
        ","
      ],
      [
        "a",
        "le"
      ],
      [
        "a",
        "ir"
      ],
      [
        "d",
        "ies"
      ],
      [
        "g",
        "ra"
      ],
      [
        "i",
        "th"
      ],
      [
        "i",
        "ous"
      ],
      [
        "m",
        "ind"
      ],
      [
        "n",
        "ey"
      ],
      [
        "o",
        "me"
      ],
      [
        "r",
        "ated"
      ],
      [
        "s",
        "ible"
      ],
      [
        "u",
        "le"
      ],
      [
        "u",
        "ally"
      ],
      [
        "Ġ",
        "#"
      ],
      [
        "in",
        "ation"
      ],
      [
        "Ġc",
        "orrect"
      ],
      [
        "at",
        "ch"
      ],
      [
        "Ġw",
        "ell"
      ],
      [
        "Ġw",
        "ake"
      ],
      [
        "re",
        "ak"
      ],
      [
        "nd",
        "s"
      ],
      [
        "Ġm",
        "ed"
      ],
      [
        "Ġm",
        "ul"
      ],
      [
        "Ġf",
        "irst"
      ],
      [
        "Ġp",
        "u"
      ],
      [
        "Ġp",
        "ic"
      ],
      [
        "Ġl",
        "ess"
      ],
      [
        "Ġof",
        "fer"
      ],
      [
        "ro",
        "ve"
      ],
      [
        "ti",
        "l"
      ],
      [
        "ti",
        "p"
      ],
      [
        "ic",
        "ial"
      ],
      [
        "Ġco",
        "me"
      ],
      [
        "it",
        "ch"
      ],
      [
        "Ġre",
        "f"
      ],
      [
        "Ġre",
        "p"
      ],
      [
        "Ġre",
        "t"
      ],
      [
        "Ġre",
        "gul"
      ],
      [
        "Ġre",
        "gular"
      ],
      [
        "ig",
        "ence"
      ],
      [
        "Ġbe",
        "a"
      ],
      [
        "Ġst",
        "ruc"
      ],
      [
        "Ġwith",
        "out"
      ],
      [
        "Ġan",
        "other"
      ],
      [
        "Ġdo",
        "g"
      ],
      [
        "Ġwor",
        "ry"
      ],
      [
        "ĠS",
        "et"
      ],
      [
        "Ġme",
        "et"
      ],
      [
        "Ġ1",
        "1"
      ],
      [
        "Ġus",
        "es"
      ],
      [
        "our",
        "ney"
      ],
      [
        "ell",
        "igence"
      ],
      [
        "id",
        "er"
      ],
      [
        "ur",
        "ing"
      ],
      [
        "Ġsp",
        "ots"
      ],
      [
        "Ġbo",
        "th"
      ],
      [
        "Ġj",
        "ourney"
      ],
      [
        "res",
        "h"
      ],
      [
        "Ġsc",
        "ent"
      ],
      [
        "ĠF",
        "irst"
      ],
      [
        "ĠE",
        "n"
      ],
      [
        "Ġca",
        "re"
      ],
      [
        "Ġinform",
        "ative"
      ],
      [
        "Ġgi",
        "ving"
      ],
      [
        "Ġcl",
        "ose"
      ],
      [
        "Ġfeel",
        "ing"
      ],
      [
        "Ġsy",
        "st"
      ],
      [
        "Ġmag",
        "ic"
      ],
      [
        "tic",
        "les"
      ],
      [
        "Ġpo",
        "em"
      ],
      [
        "em",
        "at"
      ],
      [
        "Ġte",
        "mp"
      ],
      [
        "Ġrel",
        "ax"
      ],
      [
        "Ġplay",
        "ing"
      ],
      [
        "Ġorgani",
        "ze"
      ],
      [
        "Ġpos",
        "itive"
      ],
      [
        "Ġcaus",
        "es"
      ],
      [
        "tif",
        "icial"
      ],
      [
        "Ġtool",
        "s"
      ],
      [
        "Ġerr",
        "or"
      ],
      [
        "Ġcour",
        "se"
      ],
      [
        "Ġwr",
        "iting"
      ],
      [
        "Ġmath",
        "emat"
      ],
      [
        "Ġcond",
        "ition"
      ],
      [
        "Ġdirt",
        "y"
      ],
      [
        "Ġorganiz",
        "ed"
      ],
      [
        "Ġter",
        "ms"
      ],
      [
        "Ġcu",
        "ri"
      ],
      [
        "Ġfig",
        "ure"
      ],
      [
        "Ġdevelop",
        "er"
      ],
      [
        "Ġ/",
        "/"
      ],
      [
        "ectiv",
        "es"
      ],
      [
        "gra",
        "mming"
      ],
      [
        "Ġmul",
        "tip"
      ],
      [
        "Ġpic",
        "ture"
      ],
      [
        ")",
        ","
      ],
      [
        "2",
        "0"
      ],
      [
        "L",
        "imit"
      ],
      [
        "N",
        "A"
      ],
      [
        "T",
        "ake"
      ],
      [
        "a",
        "mes"
      ],
      [
        "c",
        "u"
      ],
      [
        "c",
        "ent"
      ],
      [
        "c",
        "tions"
      ],
      [
        "e",
        "le"
      ],
      [
        "e",
        "ver"
      ],
      [
        "g",
        "en"
      ],
      [
        "h",
        "y"
      ],
      [
        "i",
        "k"
      ],
      [
        "i",
        "v"
      ],
      [
        "l",
        "ish"
      ],
      [
        "m",
        "ing"
      ],
      [
        "p",
        "m"
      ],
      [
        "r",
        "u"
      ],
      [
        "r",
        "ink"
      ],
      [
        "s",
        "h"
      ],
      [
        "t",
        "en"
      ],
      [
        "t",
        "ed"
      ],
      [
        "u",
        "nd"
      ],
      [
        "v",
        "ic"
      ],
      [
        "w",
        "h"
      ],
      [
        "Ġ",
        "Q"
      ],
      [
        "Ġa",
        "u"
      ],
      [
        "er",
        "ing"
      ],
      [
        "Ġc",
        "ell"
      ],
      [
        "Ġc",
        "ur"
      ],
      [
        "Ġc",
        "ertain"
      ],
      [
        "re",
        "ad"
      ],
      [
        "Ġs",
        "l"
      ],
      [
        "Ġs",
        "end"
      ],
      [
        "Ġs",
        "elf"
      ],
      [
        "Ġs",
        "lic"
      ],
      [
        "Ġy",
        "ear"
      ],
      [
        "Ġto",
        "p"
      ],
      [
        "es",
        "cribe"
      ],
      [
        "Ġm",
        "el"
      ],
      [
        "an",
        "a"
      ],
      [
        "Ġf",
        "ree"
      ],
      [
        "Ġp",
        "ull"
      ],
      [
        "on",
        "ic"
      ],
      [
        "Ġh",
        "y"
      ],
      [
        "Ġh",
        "ope"
      ],
      [
        "le",
        "nt"
      ],
      [
        "ke",
        "t"
      ],
      [
        "ke",
        "nds"
      ],
      [
        "Ġd",
        "ep"
      ],
      [
        "Ġd",
        "est"
      ],
      [
        "Ġd",
        "ouble"
      ],
      [
        "Ġl",
        "ab"
      ],
      [
        "Ġl",
        "arg"
      ],
      [
        "Ġin",
        "de"
      ],
      [
        "ti",
        "m"
      ],
      [
        "ed",
        "ule"
      ],
      [
        "Ġg",
        "ravity"
      ],
      [
        "Ġe",
        "y"
      ],
      [
        "Ġe",
        "arth"
      ],
      [
        "Ġit",
        "ems"
      ],
      [
        "Ġco",
        "o"
      ],
      [
        "Ġco",
        "in"
      ],
      [
        "Ġpro",
        "per"
      ],
      [
        "Ġre",
        "al"
      ],
      [
        "Ġha",
        "d"
      ],
      [
        "Ġha",
        "ik"
      ],
      [
        "ig",
        "h"
      ],
      [
        "Ġhelp",
        "ing"
      ],
      [
        "Ġfor",
        "get"
      ],
      [
        "as",
        "ure"
      ],
      [
        "Ġne",
        "ar"
      ],
      [
        "Ġle",
        "ast"
      ],
      [
        "ĠS",
        "leep"
      ],
      [
        "ot",
        "e"
      ],
      [
        "ag",
        "ore"
      ],
      [
        "Ġwe",
        "bs"
      ],
      [
        "Ġsome",
        "times"
      ],
      [
        "Ġ1",
        "20"
      ],
      [
        "ch",
        "edule"
      ],
      [
        "Ġ5",
        "00"
      ],
      [
        "for",
        "t"
      ],
      [
        "Ġbo",
        "dies"
      ],
      [
        "Ġj",
        "o"
      ],
      [
        "gh",
        "ter"
      ],
      [
        "Ġneed",
        "s"
      ],
      [
        "Ġr",
        "ace"
      ],
      [
        "Ġen",
        "coura"
      ],
      [
        "ĠD",
        "e"
      ],
      [
        "ĠD",
        "NA"
      ],
      [
        "ĠD",
        "escribe"
      ],
      [
        "pl",
        "an"
      ],
      [
        "pl",
        "ugs"
      ],
      [
        "ari",
        "ables"
      ],
      [
        "av",
        "i"
      ],
      [
        "Ġsc",
        "atter"
      ],
      [
        "ment",
        "al"
      ],
      [
        "Ġhe",
        "art"
      ],
      [
        "Ġhe",
        "ads"
      ],
      [
        "Ġsm",
        "art"
      ],
      [
        "Ġfind",
        "ing"
      ],
      [
        "led",
        "ge"
      ],
      [
        "yth",
        "agore"
      ],
      [
        "Ġro",
        "om"
      ],
      [
        "Ġimp",
        "rove"
      ],
      [
        "ie",
        "w"
      ],
      [
        "ĠO",
        "h"
      ],
      [
        "Ġper",
        "f"
      ],
      [
        "Ġper",
        "cent"
      ],
      [
        "Ġres",
        "pectful"
      ],
      [
        "oc",
        "us"
      ],
      [
        "ĠCo",
        "mm"
      ],
      [
        "Ġair",
        "plan"
      ],
      [
        "Ġopen",
        "ing"
      ],
      [
        "Ġun",
        "til"
      ],
      [
        "Ġsk",
        "ill"
      ],
      [
        "Ġflow",
        "ers"
      ],
      [
        "Ġno",
        "ise"
      ],
      [
        "Ġstart",
        "ed"
      ],
      [
        "Ġpiec",
        "es"
      ],
      [
        "Ġmist",
        "ake"
      ],
      [
        "Ġinterest",
        "ed"
      ],
      [
        "Ġam",
        "ount"
      ],
      [
        "ĠPro",
        "gramming"
      ],
      [
        "Ġerr",
        "ors"
      ],
      [
        "ne",
        "tic"
      ],
      [
        "Ġtyp",
        "es"
      ],
      [
        "Ġbeh",
        "avi"
      ],
      [
        "Ġhealth",
        "y"
      ],
      [
        "Ġfiel",
        "d"
      ],
      [
        "Ġsupp",
        "ort"
      ],
      [
        "Ġhum",
        "ans"
      ],
      [
        "Ġear",
        "plugs"
      ],
      [
        "ĠList",
        "en"
      ],
      [
        "Ġnor",
        "th"
      ],
      [
        "Ġbegin",
        "ner"
      ],
      [
        "Ġwee",
        "kends"
      ],
      [
        "Ġtri",
        "ang"
      ],
      [
        "Ġconc",
        "ep"
      ],
      [
        "St",
        "ay"
      ],
      [
        "Ġpu",
        "zz"
      ],
      [
        "Ġret",
        "urn"
      ],
      [
        "Ġcuri",
        "ous"
      ],
      [
        "ele",
        "br"
      ],
      [
        "vic",
        "es"
      ],
      [
        "Ġdep",
        "end"
      ],
      [
        "Ġhaik",
        "u"
      ],
      [
        "ythagore",
        "an"
      ],
      [
        "a",
        "mental"
      ],
      [
        "d",
        "el"
      ],
      [
        "e",
        "arn"
      ],
      [
        "e",
        "ze"
      ],
      [
        "l",
        "ines"
      ],
      [
        "n",
        "s"
      ],
      [
        "n",
        "ess"
      ],
      [
        "p",
        "ing"
      ],
      [
        "p",
        "ot"
      ],
      [
        "r",
        "ust"
      ],
      [
        "s",
        "ure"
      ],
      [
        "t",
        "e"
      ],
      [
        "t",
        "xt"
      ],
      [
        "u",
        "ep"
      ],
      [
        "w",
        "or"
      ],
      [
        "w",
        "ard"
      ],
      [
        "Ġt",
        "able"
      ],
      [
        "er",
        "ature"
      ],
      [
        "ou",
        "th"
      ],
      [
        "ou",
        "se"
      ],
      [
        "Ġw",
        "arm"
      ],
      [
        "Ġs",
        "orts"
      ],
      [
        "Ġm",
        "ay"
      ],
      [
        "an",
        "k"
      ],
      [
        "an",
        "ana"
      ],
      [
        "Ġf",
        "ore"
      ],
      [
        "Ġf",
        "und"
      ],
      [
        "Ġf",
        "ocus"
      ],
      [
        "Ġp",
        "at"
      ],
      [
        "Ġp",
        "op"
      ],
      [
        "Ġh",
        "on"
      ],
      [
        "Ġh",
        "ouse"
      ],
      [
        "en",
        "use"
      ],
      [
        "Ġd",
        "rink"
      ],
      [
        "Ġg",
        "ames"
      ],
      [
        "Ġn",
        "ight"
      ],
      [
        "Ġe",
        "m"
      ],
      [
        "Ġwh",
        "ite"
      ],
      [
        "Ġco",
        "m"
      ],
      [
        "it",
        "es"
      ],
      [
        "Ġre",
        "mind"
      ],
      [
        "ĠA",
        "n"
      ],
      [
        "ĠA",
        "re"
      ],
      [
        "ion",
        "s"
      ],
      [
        "ra",
        "id"
      ],
      [
        "out",
        "ine"
      ],
      [
        "as",
        "es"
      ],
      [
        "ri",
        "es"
      ],
      [
        "Ġne",
        "xt"
      ],
      [
        "ir",
        "d"
      ],
      [
        "ir",
        "cu"
      ],
      [
        "ĠWh",
        "ere"
      ],
      [
        "Ġex",
        "c"
      ],
      [
        "Ġex",
        "pect"
      ],
      [
        "Ġab",
        "ility"
      ],
      [
        "Ġv",
        "ide"
      ],
      [
        "ist",
        "ory"
      ],
      [
        "Ġme",
        "als"
      ],
      [
        "Ġpl",
        "ant"
      ],
      [
        "Ġpl",
        "ates"
      ],
      [
        "les",
        "s"
      ],
      [
        "Ġ2",
        "0"
      ],
      [
        "Ġqu",
        "ick"
      ],
      [
        "Ġqu",
        "ote"
      ],
      [
        "Ġ3",
        "0"
      ],
      [
        "ĠP",
        "h"
      ],
      [
        "ĠP",
        "ythagorean"
      ],
      [
        "Ġbo",
        "ys"
      ],
      [
        "Ġway",
        "s"
      ],
      [
        "Ġen",
        "ough"
      ],
      [
        "Ġde",
        "vices"
      ],
      [
        "rac",
        "tice"
      ],
      [
        "Ġnot",
        "e"
      ],
      [
        "Ġsc",
        "ale"
      ],
      [
        "Ġknow",
        "n"
      ],
      [
        "Ġknow",
        "ledge"
      ],
      [
        "Ġgi",
        "ves"
      ],
      [
        "and",
        "s"
      ],
      [
        "Ġout",
        "co"
      ],
      [
        "Ġac",
        "cess"
      ],
      [
        "Ġob",
        "j"
      ],
      [
        "Ġbl",
        "uep"
      ],
      [
        "Ġlist",
        "s"
      ],
      [
        "Ġmag",
        "ical"
      ],
      [
        "Ġmag",
        "netic"
      ],
      [
        "unic",
        "ation"
      ],
      [
        "ĠO",
        "r"
      ],
      [
        "Ġbug",
        "s"
      ],
      [
        "Ġevery",
        "one"
      ],
      [
        "Ġbre",
        "eze"
      ],
      [
        "Ġph",
        "otosynthesis"
      ],
      [
        "Ġres",
        "ult"
      ],
      [
        "Ġansw",
        "ers"
      ],
      [
        "ĠCo",
        "ding"
      ],
      [
        "Ġproject",
        "s"
      ],
      [
        "Ġtal",
        "king"
      ],
      [
        "Ġproduc",
        "tivity"
      ],
      [
        "Ġtr",
        "an"
      ],
      [
        "Ġdi",
        "re"
      ],
      [
        "ĠG",
        "ood"
      ],
      [
        "Ġmess",
        "ages"
      ],
      [
        "Ġboo",
        "k"
      ],
      [
        "Ġrel",
        "ated"
      ],
      [
        "Ġfix",
        "ed"
      ],
      [
        "Ġcalcul",
        "ate"
      ],
      [
        "Ġprac",
        "tic"
      ],
      [
        "cou",
        "nt"
      ],
      [
        "Ġpos",
        "sible"
      ],
      [
        "Ġtravel",
        "s"
      ],
      [
        "tif",
        "y"
      ],
      [
        "Ġaf",
        "raid"
      ],
      [
        "Ġcour",
        "ses"
      ],
      [
        "()",
        "`"
      ],
      [
        "ĠTi",
        "ps"
      ],
      [
        "ĠV",
        "ariables"
      ],
      [
        "Ġeng",
        "ag"
      ],
      [
        "Ġdatab",
        "ase"
      ],
      [
        "Ġdatab",
        "ases"
      ],
      [
        "ni",
        "qu"
      ],
      [
        "Ġcol",
        "or"
      ],
      [
        "Ġtre",
        "es"
      ],
      [
        "Ġfast",
        "er"
      ],
      [
        "Ġexp",
        "ress"
      ],
      [
        "Ġpredic",
        "tions"
      ],
      [
        "Ġbel",
        "ie"
      ],
      [
        "ĠTech",
        "nology"
      ],
      [
        "ĠAPI",
        "s"
      ],
      [
        "Ġregul",
        "ate"
      ],
      [
        "Ġstruc",
        "ture"
      ],
      [
        "ĠEn",
        "vironment"
      ],
      [
        "Ġmultip",
        "ly"
      ],
      [
        "ĠQ",
        "u"
      ],
      [
        "Ġslic",
        "es"
      ],
      [
        "Ġhy",
        "pot"
      ],
      [
        "Ġlab",
        "el"
      ],
      [
        "Ġlarg",
        "est"
      ],
      [
        "Ġperf",
        "ect"
      ],
      [
        "ĠComm",
        "unication"
      ],
      [
        "elebr",
        "ate"
      ],
      [
        "Ġfund",
        "amental"
      ],
      [
        "Ġbluep",
        "rint"
      ],
      [
        "Ġhypot",
        "enuse"
      ],
      [
        "'",
        ")"
      ],
      [
        "(",
        "'"
      ],
      [
        ")",
        "."
      ],
      [
        "A",
        "void"
      ],
      [
        "N",
        "ero"
      ],
      [
        "Z",
        "or"
      ],
      [
        "a",
        "de"
      ],
      [
        "a",
        "ks"
      ],
      [
        "b",
        "o"
      ],
      [
        "b",
        "on"
      ],
      [
        "b",
        "ot"
      ],
      [
        "b",
        "ject"
      ],
      [
        "b",
        "ack"
      ],
      [
        "b",
        "anana"
      ],
      [
        "c",
        "ar"
      ],
      [
        "d",
        "ate"
      ],
      [
        "e",
        "ther"
      ],
      [
        "f",
        "ace"
      ],
      [
        "h",
        "e"
      ],
      [
        "i",
        "b"
      ],
      [
        "l",
        "u"
      ],
      [
        "l",
        "led"
      ],
      [
        "n",
        "o"
      ],
      [
        "o",
        "thing"
      ],
      [
        "p",
        "t"
      ],
      [
        "p",
        "ec"
      ],
      [
        "v",
        "en"
      ],
      [
        "v",
        "ath"
      ],
      [
        "w",
        "s"
      ],
      [
        "z",
        "ing"
      ],
      [
        "Ġ",
        "{"
      ],
      [
        "Ġ",
        "Zor"
      ],
      [
        "Ġt",
        "aking"
      ],
      [
        "Ġa",
        "ble"
      ],
      [
        "Ġa",
        "ct"
      ],
      [
        "er",
        "ies"
      ],
      [
        "at",
        "or"
      ],
      [
        "at",
        "form"
      ],
      [
        "Ġw",
        "atch"
      ],
      [
        "Ġs",
        "w"
      ],
      [
        "Ġs",
        "it"
      ],
      [
        "Ġs",
        "ide"
      ],
      [
        "Ġs",
        "outh"
      ],
      [
        "Ġo",
        "pp"
      ],
      [
        "Ġb",
        "ir"
      ],
      [
        "Ġb",
        "ack"
      ],
      [
        "Ġm",
        "ent"
      ],
      [
        "Ġm",
        "orn"
      ],
      [
        "Ġf",
        "ly"
      ],
      [
        "Ġf",
        "ound"
      ],
      [
        "Ġf",
        "resh"
      ],
      [
        "Ġp",
        "ar"
      ],
      [
        "Ġp",
        "lent"
      ],
      [
        "on",
        "es"
      ],
      [
        "Ġh",
        "i"
      ],
      [
        "Ġh",
        "im"
      ],
      [
        "en",
        "s"
      ],
      [
        "en",
        "se"
      ],
      [
        "en",
        "ces"
      ],
      [
        "Ġd",
        "el"
      ],
      [
        "Ġd",
        "ark"
      ],
      [
        "Ġl",
        "ines"
      ],
      [
        "Ġl",
        "arge"
      ],
      [
        "th",
        "e"
      ],
      [
        "al",
        "se"
      ],
      [
        "ar",
        "ch"
      ],
      [
        "st",
        "ing"
      ],
      [
        "ro",
        "om"
      ],
      [
        "ro",
        "ss"
      ],
      [
        "ed",
        "back"
      ],
      [
        "Ġli",
        "mit"
      ],
      [
        "Ġli",
        "ghter"
      ],
      [
        "Ġn",
        "ec"
      ],
      [
        "Ġn",
        "av"
      ],
      [
        "Ġn",
        "ice"
      ],
      [
        "Ġwh",
        "ile"
      ],
      [
        "ec",
        "ursion"
      ],
      [
        "Ġlike",
        "ly"
      ],
      [
        "Ġma",
        "int"
      ],
      [
        "Ġre",
        "ce"
      ],
      [
        "ĠA",
        "c"
      ],
      [
        "Ġso",
        "othing"
      ],
      [
        "Ġfor",
        "ward"
      ],
      [
        "ent",
        "ed"
      ],
      [
        "Ġst",
        "u"
      ],
      [
        "Ġst",
        "re"
      ],
      [
        "Ġan",
        "al"
      ],
      [
        "ri",
        "ori"
      ],
      [
        "Ġdo",
        "or"
      ],
      [
        "Ġmo",
        "ving"
      ],
      [
        "oo",
        "k"
      ],
      [
        "oo",
        "ming"
      ],
      [
        "ĠS",
        "ince"
      ],
      [
        "Ġab",
        "il"
      ],
      [
        "Ġwe",
        "ight"
      ],
      [
        "Ġcon",
        "n"
      ],
      [
        "Ġti",
        "m"
      ],
      [
        "Ġpl",
        "atform"
      ],
      [
        "ĠY",
        "our"
      ],
      [
        "ess",
        "ary"
      ],
      [
        "Ġal",
        "gebra"
      ],
      [
        "ang",
        "e"
      ],
      [
        "Ġall",
        "ow"
      ],
      [
        "Ġsp",
        "ace"
      ],
      [
        "Ġj",
        "ac"
      ],
      [
        "Ġr",
        "ust"
      ],
      [
        "ĠB",
        "reak"
      ],
      [
        "Ġprogra",
        "mm"
      ],
      [
        "Ġen",
        "vironment"
      ],
      [
        "Ġsc",
        "ience"
      ],
      [
        "ĠHow",
        "ever"
      ],
      [
        "Ġrec",
        "og"
      ],
      [
        "Ġse",
        "arch"
      ],
      [
        "Ġac",
        "c"
      ],
      [
        "Ġac",
        "tiv"
      ],
      [
        "Ġbl",
        "ooming"
      ],
      [
        "Ġpi",
        "e"
      ],
      [
        "Ġcomm",
        "un"
      ],
      [
        "Ġdiffer",
        "ence"
      ],
      [
        "Ġfl",
        "ip"
      ],
      [
        "Ġbed",
        "room"
      ],
      [
        "Ġchang",
        "ing"
      ],
      [
        "Ġday",
        "time"
      ],
      [
        "Ġpo",
        "le"
      ],
      [
        "ori",
        "ented"
      ],
      [
        "Ġread",
        "y"
      ],
      [
        "Ġset",
        "ting"
      ],
      [
        "Ġmove",
        "ment"
      ],
      [
        "Ġstore",
        "s"
      ],
      [
        "Ġtr",
        "ust"
      ],
      [
        "Ġdi",
        "ox"
      ],
      [
        "Ġconf",
        "us"
      ],
      [
        "Ġte",
        "ach"
      ],
      [
        "Ġar",
        "ticles"
      ],
      [
        "Ġcar",
        "bon"
      ],
      [
        "Ġlot",
        "s"
      ],
      [
        "Ġmotiv",
        "ational"
      ],
      [
        "ngth",
        "s"
      ],
      [
        "Ġcaus",
        "ed"
      ],
      [
        "Ġinc",
        "orrect"
      ],
      [
        "arg",
        "on"
      ],
      [
        "ĠPro",
        "bability"
      ],
      [
        "Ġsign",
        "al"
      ],
      [
        "Ġsign",
        "als"
      ],
      [
        "Ġfiel",
        "ds"
      ],
      [
        "app",
        "le"
      ],
      [
        "den",
        "tify"
      ],
      [
        "ni",
        "ze"
      ],
      [
        "ĠRegular",
        "ly"
      ],
      [
        "Ġide",
        "a"
      ],
      [
        "Ġide",
        "as"
      ],
      [
        "Ġgu",
        "ide"
      ],
      [
        "Ġelectric",
        "ity"
      ],
      [
        "Ġattrib",
        "utes"
      ],
      [
        "Ġattrib",
        "ute"
      ],
      [
        "Ġpower",
        "ful"
      ],
      [
        "Ġser",
        "ene"
      ],
      [
        "Ġla",
        "wn"
      ],
      [
        "Ġmean",
        "ing"
      ],
      [
        "Ġbreath",
        "ing"
      ],
      [
        "Ġneur",
        "ons"
      ],
      [
        "Ġchec",
        "king"
      ],
      [
        "Ġscreen",
        "s"
      ],
      [
        "Ġresp",
        "ond"
      ],
      [
        "Ġtemp",
        "erature"
      ],
      [
        "Ġcell",
        "s"
      ],
      [
        "Ġdest",
        "ination"
      ],
      [
        "Ġinde",
        "ed"
      ],
      [
        "Ġencoura",
        "ging"
      ],
      [
        "Ġpercent",
        "age"
      ],
      [
        "Ġbehavi",
        "or"
      ],
      [
        "Ġtriang",
        "le"
      ],
      [
        "Ġfore",
        "st"
      ],
      [
        "Ġpat",
        "ient"
      ],
      [
        "Ġcom",
        "fort"
      ],
      [
        "Ġobj",
        "ectives"
      ],
      [
        "Ġdire",
        "ction"
      ],
      [
        "niqu",
        "es"
      ],
      [
        "ĠQu",
        "ick"
      ],
      [
        "ĠZor",
        "vath"
      ],
      [
        "Ġmorn",
        "ing"
      ],
      [
        "Ġplent",
        "y"
      ],
      [
        "Ġnec",
        "essary"
      ],
      [
        "Ġnav",
        "ig"
      ],
      [
        "Ġmaint",
        "ain"
      ],
      [
        "riori",
        "ti"
      ],
      [
        "Ġabil",
        "ities"
      ],
      [
        "Ġrecog",
        "nize"
      ],
      [
        "Ġdiox",
        "ide"
      ],
      [
        "(",
        "\""
      ],
      [
        "E",
        "x"
      ],
      [
        "J",
        "o"
      ],
      [
        "a",
        "ffeine"
      ],
      [
        "a",
        "zing"
      ],
      [
        "b",
        "ook"
      ],
      [
        "c",
        "on"
      ],
      [
        "c",
        "ake"
      ],
      [
        "d",
        "u"
      ],
      [
        "f",
        "ic"
      ],
      [
        "h",
        "n"
      ],
      [
        "i",
        "a"
      ],
      [
        "i",
        "ally"
      ],
      [
        "m",
        "os"
      ],
      [
        "m",
        "ile"
      ],
      [
        "n",
        "al"
      ],
      [
        "n",
        "um"
      ],
      [
        "p",
        "is"
      ],
      [
        "s",
        "ol"
      ],
      [
        "t",
        "y"
      ],
      [
        "t",
        "ry"
      ],
      [
        "u",
        "ti"
      ],
      [
        "v",
        "ed"
      ],
      [
        "v",
        "ari"
      ],
      [
        "x",
        "y"
      ],
      [
        "Ġ",
        "9"
      ],
      [
        "Ġ",
        "es"
      ],
      [
        "Ġ",
        "ing"
      ],
      [
        "Ġ",
        "ed"
      ],
      [
        "Ġ",
        "ess"
      ],
      [
        "Ġt",
        "rou"
      ],
      [
        "Ġt",
        "ough"
      ],
      [
        "in",
        "s"
      ],
      [
        "er",
        "ry"
      ],
      [
        "Ġc",
        "ent"
      ],
      [
        "Ġc",
        "ra"
      ],
      [
        "Ġc",
        "ircu"
      ],
      [
        "Ġw",
        "al"
      ],
      [
        "Ġs",
        "a"
      ],
      [
        "Ġo",
        "c"
      ],
      [
        "Ġo",
        "xy"
      ],
      [
        "an",
        "ion"
      ],
      [
        "Ġf",
        "in"
      ],
      [
        "Ġf",
        "am"
      ],
      [
        "Ġp",
        "ain"
      ],
      [
        "Ġh",
        "id"
      ],
      [
        "Ġh",
        "istory"
      ],
      [
        "or",
        "m"
      ],
      [
        "en",
        "ti"
      ],
      [
        "en",
        "om"
      ],
      [
        "en",
        "ger"
      ],
      [
        "Ġl",
        "at"
      ],
      [
        "Ġl",
        "og"
      ],
      [
        "ĠI",
        "s"
      ],
      [
        "al",
        "le"
      ],
      [
        "Ġin",
        "d"
      ],
      [
        "ĠN",
        "ope"
      ],
      [
        "st",
        "ep"
      ],
      [
        "Ġg",
        "en"
      ],
      [
        "Ġg",
        "reen"
      ],
      [
        "Ġn",
        "ut"
      ],
      [
        "Ġn",
        "am"
      ],
      [
        "Ġn",
        "ature"
      ],
      [
        "Ġe",
        "mit"
      ],
      [
        "Ġwh",
        "y"
      ],
      [
        "Ġwh",
        "isk"
      ],
      [
        "ve",
        "led"
      ],
      [
        "ac",
        "c"
      ],
      [
        "ac",
        "ter"
      ],
      [
        "Ġu",
        "ser"
      ],
      [
        "is",
        "m"
      ],
      [
        "Ġma",
        "ss"
      ],
      [
        "ĠA",
        "r"
      ],
      [
        "Ġor",
        "b"
      ],
      [
        "Ġor",
        "ange"
      ],
      [
        "Ġfor",
        "m"
      ],
      [
        "ĠW",
        "ith"
      ],
      [
        "ul",
        "ants"
      ],
      [
        "Ġmo",
        "de"
      ],
      [
        "Ġmo",
        "ment"
      ],
      [
        "Ġmo",
        "del"
      ],
      [
        "Ġne",
        "ver"
      ],
      [
        "oo",
        "oo"
      ],
      [
        "Ġle",
        "ad"
      ],
      [
        "ir",
        "ping"
      ],
      [
        "ĠS",
        "h"
      ],
      [
        "ĠS",
        "tim"
      ],
      [
        "Ġab",
        "ove"
      ],
      [
        "Ġv",
        "is"
      ],
      [
        "Ġv",
        "irt"
      ],
      [
        "Ġv",
        "acc"
      ],
      [
        "ist",
        "ance"
      ],
      [
        "qu",
        "akes"
      ],
      [
        "our",
        "ces"
      ],
      [
        "rou",
        "d"
      ],
      [
        "id",
        "ing"
      ],
      [
        "Ġch",
        "ar"
      ],
      [
        "Ġch",
        "em"
      ],
      [
        "Ġch",
        "alle"
      ],
      [
        "Ġch",
        "irping"
      ],
      [
        "ĠC",
        "ons"
      ],
      [
        "ĠC",
        "affeine"
      ],
      [
        "riend",
        "ly"
      ],
      [
        "Ġfe",
        "ature"
      ],
      [
        "Ġfe",
        "edback"
      ],
      [
        "Ġat",
        "mos"
      ],
      [
        "Ġqu",
        "al"
      ],
      [
        "ĠP",
        "l"
      ],
      [
        "Ġcomp",
        "anion"
      ],
      [
        "ang",
        "led"
      ],
      [
        "ab",
        "or"
      ],
      [
        "ol",
        "ves"
      ],
      [
        "Ġj",
        "argon"
      ],
      [
        "Ġr",
        "outine"
      ],
      [
        "est",
        "ful"
      ],
      [
        "ĠD",
        "istance"
      ],
      [
        "uc",
        "k"
      ],
      [
        "uc",
        "t"
      ],
      [
        "ug",
        "g"
      ],
      [
        "Ġcreat",
        "or"
      ],
      [
        "Ġde",
        "ar"
      ],
      [
        "Ġfi",
        "lled"
      ],
      [
        "Ġinter",
        "nal"
      ],
      [
        "ĠR",
        "ecursion"
      ],
      [
        "ĠR",
        "estful"
      ],
      [
        "ĠE",
        "ach"
      ],
      [
        "Ġfun",
        "ctions"
      ],
      [
        "os",
        "ed"
      ],
      [
        "os",
        "ite"
      ],
      [
        "Ġad",
        "ding"
      ],
      [
        "Ġout",
        "side"
      ],
      [
        "ath",
        "er"
      ],
      [
        "Ġcont",
        "ent"
      ],
      [
        "Ġac",
        "tions"
      ],
      [
        "Ġac",
        "ross"
      ],
      [
        "Ġint",
        "elligence"
      ],
      [
        "Ġcal",
        "m"
      ],
      [
        "Ġsy",
        "n"
      ],
      [
        "ĠO",
        "f"
      ],
      [
        "tic",
        "k"
      ],
      [
        "Ġpo",
        "les"
      ],
      [
        "Ġperson",
        "al"
      ],
      [
        "Ġbre",
        "aks"
      ],
      [
        "Ġph",
        "enom"
      ],
      [
        "Ġres",
        "ources"
      ],
      [
        "Ġbu",
        "y"
      ],
      [
        "Ġsol",
        "ving"
      ],
      [
        "Ġopen",
        "s"
      ],
      [
        "co",
        "mp"
      ],
      [
        "co",
        "ver"
      ],
      [
        "Ġlangu",
        "ages"
      ],
      [
        "tt",
        "y"
      ],
      [
        "Ġflow",
        "er"
      ],
      [
        "Ġtr",
        "ue"
      ],
      [
        "Ġdi",
        "v"
      ],
      [
        "ĠG",
        "it"
      ],
      [
        "Ġtra",
        "veled"
      ],
      [
        "red",
        "ient"
      ],
      [
        "Ġmess",
        "enger"
      ],
      [
        "Ġar",
        "tificial"
      ],
      [
        "Ġbas",
        "ed"
      ],
      [
        "Ġprint",
        "s"
      ],
      [
        "Ġinterest",
        "s"
      ],
      [
        "Ġinterest",
        "ing"
      ],
      [
        "Ġheav",
        "y"
      ],
      [
        "Ġeat",
        "ing"
      ],
      [
        "Ġdoes",
        "n"
      ],
      [
        "Ġam",
        "azing"
      ],
      [
        "Ġinc",
        "lu"
      ],
      [
        "Ġbr",
        "ing"
      ],
      [
        "ĠAl",
        "ways"
      ],
      [
        "Ġdeep",
        "er"
      ],
      [
        "Ġfrac",
        "tions"
      ],
      [
        "Ġdef",
        "ine"
      ],
      [
        "Ġhard",
        "er"
      ],
      [
        "Ġcond",
        "uct"
      ],
      [
        "Ġbeh",
        "ave"
      ],
      [
        "Ġchat",
        "bot"
      ],
      [
        "Ġstatement",
        "s"
      ],
      [
        "ĠV",
        "ersion"
      ],
      [
        "Ġlength",
        "s"
      ],
      [
        "Ġeng",
        "ine"
      ],
      [
        "Ġcol",
        "le"
      ],
      [
        "Ġcontain",
        "ers"
      ],
      [
        "Ġpre",
        "v"
      ],
      [
        "Ġpre",
        "tty"
      ],
      [
        "Ġexper",
        "i"
      ],
      [
        "Ġsur",
        "round"
      ],
      [
        "Ġsur",
        "face"
      ],
      [
        "Ġequ",
        "al"
      ],
      [
        "ex",
        "ample"
      ],
      [
        "ph",
        "ere"
      ],
      [
        "Ġsec",
        "ret"
      ],
      [
        "Ġcoll",
        "abor"
      ],
      [
        "Ġexpl",
        "ore"
      ],
      [
        "Ġconvers",
        "ation"
      ],
      [
        "ome",
        "try"
      ],
      [
        "Ġcorrect",
        "ly"
      ],
      [
        "Ġbea",
        "uti"
      ],
      [
        "Ġsyst",
        "ems"
      ],
      [
        "Ġmathemat",
        "ics"
      ],
      [
        "Ġey",
        "e"
      ],
      [
        "Ġcoo",
        "king"
      ],
      [
        "Ġwebs",
        "ites"
      ],
      [
        "Ġairplan",
        "es"
      ],
      [
        "Ġconcep",
        "t"
      ],
      [
        "Ġpuzz",
        "le"
      ],
      [
        "Ġdepend",
        "s"
      ],
      [
        "Ġtable",
        "ts"
      ],
      [
        "Ġfocus",
        "ed"
      ],
      [
        "Ġpop",
        "ul"
      ],
      [
        "ĠPh",
        "otosynthesis"
      ],
      [
        "Ġnote",
        "book"
      ],
      [
        "Ġpractic",
        "ing"
      ],
      [
        "pec",
        "ially"
      ],
      [
        "Ġact",
        "ually"
      ],
      [
        "Ġsw",
        "itch"
      ],
      [
        "Ġopp",
        "osite"
      ],
      [
        "Ġbir",
        "ds"
      ],
      [
        "Ġdel",
        "ic"
      ],
      [
        "Ġanal",
        "y"
      ],
      [
        "Ġjac",
        "ket"
      ],
      [
        "Ġrust",
        "ling"
      ],
      [
        "Ġactiv",
        "ities"
      ],
      [
        "Ġcomfort",
        "able"
      ],
      [
        "Ġnavig",
        "ate"
      ],
      [
        "rioriti",
        "ze"
      ],
      [
        "Ex",
        "ercise"
      ],
      [
        "du",
        "ce"
      ],
      [
        "vari",
        "able"
      ],
      [
        "Ġes",
        "pecially"
      ],
      [
        "Ġing",
        "redient"
      ],
      [
        "Ġess",
        "enti"
      ],
      [
        "Ġcra",
        "sh"
      ],
      [
        "Ġoxy",
        "gen"
      ],
      [
        "Ġhid",
        "den"
      ],
      [
        "Ġnam",
        "ed"
      ],
      [
        "Ġemit",
        "ted"
      ],
      [
        "Ġwhisk",
        "er"
      ],
      [
        "ĠStim",
        "ulants"
      ],
      [
        "Ġvirt",
        "ual"
      ],
      [
        "ĠCons",
        "ider"
      ],
      [
        "Ġatmos",
        "phere"
      ],
      [
        "Ġphenom",
        "en"
      ],
      [
        "Ġbeauti",
        "ful"
      ],
      [
        "Ġessenti",
        "ally"
      ],
      [
        "!",
        "\""
      ],
      [
        "\"",
        ")"
      ],
      [
        "\"",
        "]"
      ],
      [
        "0",
        "5"
      ],
      [
        "G",
        "et"
      ],
      [
        "I",
        "dentify"
      ],
      [
        "N",
        "um"
      ],
      [
        "P",
        "U"
      ],
      [
        "P",
        "ractice"
      ],
      [
        "U",
        "se"
      ],
      [
        "]",
        "."
      ],
      [
        "a",
        "mp"
      ],
      [
        "a",
        "ms"
      ],
      [
        "b",
        "les"
      ],
      [
        "c",
        "ed"
      ],
      [
        "c",
        "ial"
      ],
      [
        "d",
        "er"
      ],
      [
        "d",
        "dy"
      ],
      [
        "d",
        "rated"
      ],
      [
        "e",
        "f"
      ],
      [
        "e",
        "g"
      ],
      [
        "e",
        "er"
      ],
      [
        "e",
        "ometry"
      ],
      [
        "f",
        "ull"
      ],
      [
        "f",
        "riendly"
      ],
      [
        "g",
        "s"
      ],
      [
        "g",
        "ies"
      ],
      [
        "h",
        "ol"
      ],
      [
        "h",
        "aps"
      ],
      [
        "i",
        "o"
      ],
      [
        "i",
        "ant"
      ],
      [
        "i",
        "ther"
      ],
      [
        "j",
        "ust"
      ],
      [
        "l",
        "or"
      ],
      [
        "m",
        "ake"
      ],
      [
        "m",
        "il"
      ],
      [
        "o",
        "ser"
      ],
      [
        "p",
        "ace"
      ],
      [
        "r",
        "ing"
      ],
      [
        "r",
        "ay"
      ],
      [
        "s",
        "k"
      ],
      [
        "t",
        "o"
      ],
      [
        "t",
        "elligence"
      ],
      [
        "u",
        "h"
      ],
      [
        "v",
        "able"
      ],
      [
        "v",
        "ous"
      ],
      [
        "v",
        "iew"
      ],
      [
        "w",
        "ar"
      ],
      [
        "w",
        "ake"
      ],
      [
        "w",
        "ith"
      ],
      [
        "Ġ",
        "}"
      ],
      [
        "Ġ",
        "ri"
      ],
      [
        "Ġ",
        "rain"
      ],
      [
        "Ġt",
        "ect"
      ],
      [
        "Ġt",
        "rick"
      ],
      [
        "Ġt",
        "ails"
      ],
      [
        "Ġt",
        "ank"
      ],
      [
        "er",
        "en"
      ],
      [
        "er",
        "able"
      ],
      [
        "er",
        "ator"
      ],
      [
        "Ġc",
        "y"
      ],
      [
        "Ġc",
        "rust"
      ],
      [
        "at",
        "on"
      ],
      [
        "at",
        "ur"
      ],
      [
        "Ġw",
        "ind"
      ],
      [
        "Ġw",
        "ings"
      ],
      [
        "Ġw",
        "ave"
      ],
      [
        "re",
        "nt"
      ],
      [
        "Ġs",
        "um"
      ],
      [
        "Ġs",
        "qu"
      ],
      [
        "Ġs",
        "we"
      ],
      [
        "Ġs",
        "ince"
      ],
      [
        "Ġs",
        "chedule"
      ],
      [
        "Ġo",
        "per"
      ],
      [
        "Ġi",
        "ll"
      ],
      [
        "Ġb",
        "i"
      ],
      [
        "Ġb",
        "ri"
      ],
      [
        "Ġb",
        "us"
      ],
      [
        "Ġb",
        "aking"
      ],
      [
        "Ġb",
        "ase"
      ],
      [
        "Ġf",
        "an"
      ],
      [
        "Ġf",
        "ro"
      ],
      [
        "Ġf",
        "ight"
      ],
      [
        "Ġf",
        "ace"
      ],
      [
        "Ġf",
        "ull"
      ],
      [
        "Ġf",
        "ru"
      ],
      [
        "Ġf",
        "alse"
      ],
      [
        "Ġp",
        "ath"
      ],
      [
        "Ġp",
        "ush"
      ],
      [
        "Ġp",
        "roud"
      ],
      [
        "Ġh",
        "al"
      ],
      [
        "Ġh",
        "orm"
      ],
      [
        "or",
        "d"
      ],
      [
        "le",
        "cul"
      ],
      [
        "le",
        "ase"
      ],
      [
        "le",
        "ngths"
      ],
      [
        "Ġd",
        "a"
      ],
      [
        "Ġd",
        "re"
      ],
      [
        "Ġd",
        "et"
      ],
      [
        "Ġd",
        "uring"
      ],
      [
        "Ġl",
        "ay"
      ],
      [
        "Ġl",
        "ake"
      ],
      [
        "Ġl",
        "ater"
      ],
      [
        "Ġl",
        "ush"
      ],
      [
        "Ġof",
        "ten"
      ],
      [
        "th",
        "ly"
      ],
      [
        "el",
        "ine"
      ],
      [
        "ar",
        "s"
      ],
      [
        "ar",
        "ing"
      ],
      [
        "ar",
        "light"
      ],
      [
        "ĠN",
        "aps"
      ],
      [
        "st",
        "ab"
      ],
      [
        "ti",
        "es"
      ],
      [
        "Ġis",
        "s"
      ],
      [
        "Ġli",
        "ve"
      ],
      [
        "ĠT",
        "V"
      ],
      [
        "ĠT",
        "ell"
      ],
      [
        "Ġg",
        "er"
      ],
      [
        "Ġg",
        "eometry"
      ],
      [
        "Ġn",
        "ic"
      ],
      [
        "Ġn",
        "ow"
      ],
      [
        "Ġn",
        "aps"
      ],
      [
        "Ġn",
        "atur"
      ],
      [
        "Ġe",
        "mp"
      ],
      [
        "Ġe",
        "ff"
      ],
      [
        "Ġe",
        "con"
      ],
      [
        "Ġe",
        "ither"
      ],
      [
        "ow",
        "ing"
      ],
      [
        "Ġco",
        "mes"
      ],
      [
        "me",
        "nd"
      ],
      [
        "Ġu",
        "nder"
      ],
      [
        "ĠTh",
        "en"
      ],
      [
        "ĠTh",
        "ird"
      ],
      [
        "ec",
        "ond"
      ],
      [
        "ll",
        "iant"
      ],
      [
        "Ġma",
        "sk"
      ],
      [
        "ut",
        "y"
      ],
      [
        "ut",
        "ely"
      ],
      [
        "Ġre",
        "st"
      ],
      [
        "Ġre",
        "as"
      ],
      [
        "Ġre",
        "ach"
      ],
      [
        "Ġha",
        "nd"
      ],
      [
        "Ġso",
        "cial"
      ],
      [
        "Ġbe",
        "gan"
      ],
      [
        "ĠH",
        "i"
      ],
      [
        "ent",
        "ure"
      ],
      [
        "ul",
        "es"
      ],
      [
        "ul",
        "ate"
      ],
      [
        "Ġon",
        "es"
      ],
      [
        "Ġst",
        "ret"
      ],
      [
        "Ġwith",
        "in"
      ],
      [
        "Ġas",
        "s"
      ],
      [
        "Ġare",
        "a"
      ],
      [
        "Ġmo",
        "ves"
      ],
      [
        "Ġmo",
        "lecul"
      ],
      [
        "Ġne",
        "g"
      ],
      [
        "Ġne",
        "ut"
      ],
      [
        "ter",
        "m"
      ],
      [
        "ĠS",
        "chedule"
      ],
      [
        "ĠS",
        "eren"
      ],
      [
        "ĠS",
        "econd"
      ],
      [
        "ĠWh",
        "y"
      ],
      [
        "ot",
        "ine"
      ],
      [
        "Ġex",
        "act"
      ],
      [
        "Ġex",
        "amp"
      ],
      [
        "Ġv",
        "iew"
      ],
      [
        "pp",
        "ing"
      ],
      [
        "Ġme",
        "ad"
      ],
      [
        "Ġme",
        "asure"
      ],
      [
        "mm",
        "y"
      ],
      [
        "ch",
        "erry"
      ],
      [
        "Ġch",
        "arg"
      ],
      [
        "Ġch",
        "eer"
      ],
      [
        "Ġch",
        "lor"
      ],
      [
        "ĠC",
        "our"
      ],
      [
        "ĠC",
        "lear"
      ],
      [
        "ĠC",
        "elebrate"
      ],
      [
        "Ġal",
        "one"
      ],
      [
        "Ġal",
        "ong"
      ],
      [
        "Ġsh",
        "ows"
      ],
      [
        "Ġsh",
        "aring"
      ],
      [
        "Ġqu",
        "eries"
      ],
      [
        "Ġcomp",
        "ass"
      ],
      [
        "Ġk",
        "itch"
      ],
      [
        "Ġsp",
        "orts"
      ],
      [
        "ol",
        "utely"
      ],
      [
        "Ġr",
        "hy"
      ],
      [
        "Ġr",
        "ules"
      ],
      [
        "Ġprogra",
        "ms"
      ],
      [
        "Ġen",
        "sure"
      ],
      [
        "Ġcreat",
        "es"
      ],
      [
        "rac",
        "t"
      ],
      [
        "rac",
        "tions"
      ],
      [
        "Ġfi",
        "ll"
      ],
      [
        "Ġwant",
        "ed"
      ],
      [
        "Ġnot",
        "es"
      ],
      [
        "Ġinter",
        "act"
      ],
      [
        "Ġknow",
        "s"
      ],
      [
        "ĠR",
        "es"
      ],
      [
        "il",
        "t"
      ],
      [
        "Ġke",
        "ys"
      ],
      [
        "ĠL",
        "ast"
      ],
      [
        "ĠL",
        "imit"
      ],
      [
        "ĠL",
        "earn"
      ],
      [
        "sist",
        "or"
      ],
      [
        "Ġcl",
        "ock"
      ],
      [
        "Ġcl",
        "oser"
      ],
      [
        "ĠIn",
        "telligence"
      ],
      [
        "Ġrec",
        "om"
      ],
      [
        "Ġapp",
        "s"
      ],
      [
        "Ġsi",
        "mil"
      ],
      [
        "pe",
        "ed"
      ],
      [
        "Ġac",
        "count"
      ],
      [
        "Ġac",
        "comp"
      ],
      [
        "Ġbl",
        "oc"
      ],
      [
        "Ġbl",
        "ack"
      ],
      [
        "Ġdif",
        "fic"
      ],
      [
        "Ġsy",
        "nt"
      ],
      [
        "Ġcomm",
        "on"
      ],
      [
        "Ġsee",
        "k"
      ],
      [
        "Ġsee",
        "m"
      ],
      [
        "Ġunderstand",
        "ing"
      ],
      [
        "ĠO",
        "n"
      ],
      [
        "ĠO",
        "ne"
      ],
      [
        "om",
        "ics"
      ],
      [
        "Ġper",
        "haps"
      ],
      [
        "Ġph",
        "ys"
      ],
      [
        "Ġph",
        "ones"
      ],
      [
        "Ġbu",
        "ddy"
      ],
      [
        "Ġbu",
        "ilt"
      ],
      [
        "ons",
        "es"
      ],
      [
        "co",
        "hol"
      ],
      [
        "Ġeas",
        "ily"
      ],
      [
        "Ġproduc",
        "ing"
      ],
      [
        "Ġproduc",
        "tion"
      ],
      [
        "Ġflow",
        "ing"
      ],
      [
        "Ġdi",
        "et"
      ],
      [
        "Ġconf",
        "use"
      ],
      [
        "ĠG",
        "reat"
      ],
      [
        "Ġstay",
        "ing"
      ],
      [
        "Ġstress",
        "ed"
      ],
      [
        "am",
        "ing"
      ],
      [
        "Ġte",
        "a"
      ],
      [
        "Ġover",
        "wh"
      ],
      [
        "Ġar",
        "t"
      ],
      [
        "Ġfix",
        "ing"
      ],
      [
        "Ġachie",
        "vable"
      ],
      [
        "Ġworks",
        "pace"
      ],
      [
        "Ġadv",
        "enture"
      ],
      [
        "aps",
        "es"
      ],
      [
        "ations",
        "h"
      ],
      [
        "Ġplan",
        "et"
      ],
      [
        "Ġcaus",
        "ing"
      ],
      [
        "Ġhappen",
        "s"
      ],
      [
        "tain",
        "s"
      ],
      [
        "Ġcall",
        "s"
      ],
      [
        "Ġinc",
        "red"
      ],
      [
        "Ġmanage",
        "able"
      ],
      [
        "ĠAl",
        "gebra"
      ],
      [
        "Ġspe",
        "ak"
      ],
      [
        "Ġ[",
        "\""
      ],
      [
        "Ġtow",
        "er"
      ],
      [
        "Ġmi",
        "x"
      ],
      [
        "Ġ+",
        "="
      ],
      [
        "Ġdis",
        "cover"
      ],
      [
        "ĠTi",
        "me"
      ],
      [
        "ĠTi",
        "mmy"
      ],
      [
        "Ġsimp",
        "l"
      ],
      [
        "bs",
        "olutely"
      ],
      [
        "ĠSt",
        "ay"
      ],
      [
        "ĠSt",
        "ress"
      ],
      [
        "ĠSt",
        "arlight"
      ],
      [
        "Ġlisten",
        "ing"
      ],
      [
        "app",
        "end"
      ],
      [
        "Ġstr",
        "ong"
      ],
      [
        "Ġcontain",
        "s"
      ],
      [
        "ĠThere",
        "fore"
      ],
      [
        "Ġshow",
        "ing"
      ],
      [
        "ĠList",
        "s"
      ],
      [
        "Ġelectric",
        "al"
      ],
      [
        "Ġenjoy",
        "ing"
      ],
      [
        "Ġtre",
        "asure"
      ],
      [
        "Ġinv",
        "olves"
      ],
      [
        "Ġdebug",
        "ging"
      ],
      [
        "Ġmis",
        "s"
      ],
      [
        "Ġneur",
        "on"
      ],
      [
        "Ġcons",
        "um"
      ],
      [
        "Ġcons",
        "ider"
      ],
      [
        "Ġchec",
        "k"
      ],
      [
        "Ġresp",
        "onses"
      ],
      [
        "Ġbasic",
        "ally"
      ],
      [
        "Ġafter",
        "no"
      ],
      [
        "Ġmed",
        "ia"
      ],
      [
        "Ġref",
        "lect"
      ],
      [
        "Ġrep",
        "res"
      ],
      [
        "Ġregular",
        "ly"
      ],
      [
        "Ġbea",
        "uty"
      ],
      [
        "Ġsyst",
        "em"
      ],
      [
        "Ġmathemat",
        "ical"
      ],
      [
        "Ġau",
        "d"
      ],
      [
        "Ġau",
        "th"
      ],
      [
        "Ġcur",
        "rent"
      ],
      [
        "Ġcur",
        "tains"
      ],
      [
        "read",
        "lines"
      ],
      [
        "Ġmel",
        "o"
      ],
      [
        "Ġmel",
        "aton"
      ],
      [
        "Ġpull",
        "ing"
      ],
      [
        "Ġearth",
        "quakes"
      ],
      [
        "Ġproper",
        "ties"
      ],
      [
        "Ġnear",
        "by"
      ],
      [
        "Ġscatter",
        "ed"
      ],
      [
        "Ġskill",
        "s"
      ],
      [
        "Ġmay",
        "be"
      ],
      [
        "Ġhon",
        "ey"
      ],
      [
        "ĠAn",
        "other"
      ],
      [
        "Ġexpect",
        "ed"
      ],
      [
        "Ġvide",
        "o"
      ],
      [
        "Ġquick",
        "ly"
      ],
      [
        "Ġoutco",
        "mes"
      ],
      [
        "Ġtran",
        "sistor"
      ],
      [
        "Ġengag",
        "ing"
      ],
      [
        "Ġment",
        "al"
      ],
      [
        "Ġstu",
        "ff"
      ],
      [
        "Ġtim",
        "eline"
      ],
      [
        "Ġcommun",
        "ity"
      ],
      [
        "mile",
        "age"
      ],
      [
        "Ġtrou",
        "ble"
      ],
      [
        "Ġcircu",
        "its"
      ],
      [
        "Ġsa",
        "fe"
      ],
      [
        "Ġoc",
        "c"
      ],
      [
        "Ġfin",
        "ish"
      ],
      [
        "Ġfam",
        "ily"
      ],
      [
        "Ġlat",
        "est"
      ],
      [
        "Ġlog",
        "ic"
      ],
      [
        "ĠAr",
        "tificial"
      ],
      [
        "Ġorb",
        "it"
      ],
      [
        "ĠSh",
        "ow"
      ],
      [
        "Ġchar",
        "acter"
      ],
      [
        "Ġchem",
        "ical"
      ],
      [
        "Ġfeature",
        "s"
      ],
      [
        "Ġsyn",
        "apses"
      ],
      [
        "Ġinclu",
        "ding"
      ],
      [
        "Ġconduct",
        "or"
      ],
      [
        "Ġexperi",
        "ences"
      ],
      [
        "Ġpopul",
        "ar"
      ],
      [
        "Ġdelic",
        "ious"
      ],
      [
        "Ġanaly",
        "ze"
      ],
      [
        "full",
        "y"
      ],
      [
        "Ġrain",
        "ing"
      ],
      [
        "Ġtect",
        "onic"
      ],
      [
        "Ġwave",
        "lengths"
[...]
